fffffccf
00000503
000001a1
fffffe22
fffffd97
ffffff50
fffffdb5
00000876
fffffb30
0000075a
fffffd01
fffffc3e
00001f6b
000019a0
fffffece
fffff782
fffffecc
00000643
000006d2
000006b4
fffffa61
000000d8
fffff75e
0000048a
00000426
000005b8
0000015b
00000517
fffff983
000004c8
000008d4
00000732
00001777
000023df
000058b1
000057a4
000051ea
00003f6b
00005508
00006f6b
000097b4
00003074
0000447c
00006ec1
00004a04
00004e4b
000081be
0000de32
00007f68
00005dac
000076f7
000038fe
00000387
fffff9f4
00000532
fffffc0c
000003e8
00000573
00000f12
0000346f
00002288
00004290
000067bb
0000490a
000042a5
00003188
00005bc9
00006c64
0000a811
000078b9
00007361
0000a5b3
00007871
000055d5
0000752d
00006779
00002bcb
000025e0
000049d9
00001b71
ffffe64d
00000075
ffffff44
000008c5
fffffa88
fffff85e
000026fb
000015c7
00007808
0000226a
00004161
000052a4
ffffddcf
fffff6d4
000003b4
ffffe543
0000243b
000043ce
00005023
00005e24
00006945
000083cf
00008249
00007286
0000119f
000013dd
00000777
00001b56
ffffe0bb
000017e0
00000116
fffff85b
fffff71e
fffffe73
00001d3a
00000e2e
000021ff
00001e69
000011e4
ffffcab5
ffffade7
ffffb08b
00000bad
fffffb12
0000195a
00003741
00005fa8
0000627d
00006148
00002a5f
000000e3
00000a7e
ffffde3a
fffff53c
ffffee13
ffffece1
ffffd422
ffffc0de
00000077
000007fa
ffffff13
00000165
00004faf
ffffe25d
ffffc8ab
ffffcdc4
ffffd9a0
ffffd327
ffffce12
ffffb6f1
000005de
fffff7ac
00001918
00001677
00002bb1
00004b7f
00002e83
000011c0
ffffdbc3
ffffc231
ffffab2f
ffffa0e3
ffffb78b
ffffb799
ffffdac5
ffffe349
00001078
fffff948
fffff7cb
00000279
00004ef2
ffff91ed
ffff8fb2
ffff8738
ffffa1f5
ffffbc02
ffff8d57
ffff9773
ffffdc02
000013f1
00000d01
000002e0
ffffd90f
ffffefea
ffffdec7
ffffd807
ffffa9c9
ffff8acb
ffff5db3
ffff6a35
ffff88d2
ffff9a0c
ffffe263
ffffec42
ffffe6bd
ffffcd7e
fffffc81
fffffaa4
00002f7f
ffffc877
ffffd0d0
ffff915a
ffffa37d
ffffc78c
ffff8fb7
ffffcd00
00001a33
000022f2
0000216b
00000464
ffffe342
ffffd14d
ffff9bc9
ffffa546
ffff6fe1
ffff4713
ffff546e
ffff605b
ffff4cab
ffff69f1
ffffac6c
ffffd1fa
ffffd164
ffffb538
ffffff2b
ffffffbf
00004a7b
ffffce8f
ffffd2a8
ffffc8f9
ffffed3c
ffffd63a
ffffe1f6
000004cf
fffffa5b
00000b25
00001f4d
fffff5ff
ffffe33d
ffffbee9
ffff725b
ffff5cb6
ffff3b5e
ffff5ccc
ffff7d49
ffff77cc
ffff7640
ffff5619
ffff6e7d
ffffcc26
ffffcbd1
ffffd4bb
00000140
fffff98a
000035ad
ffffefc6
ffffa2fb
ffffa7cb
ffffeee4
ffffffbf
fffff1df
ffffcb17
ffffd604
00000b70
ffffe6f3
ffffdc26
ffffe8c8
ffffc033
ffff6bcb
ffff5518
ffff4f09
ffff89eb
ffff9f89
ffff9287
ffff562f
ffff51e9
ffff8146
ffffd2fe
fffff45a
fffffa7a
fffffa1f
000007ca
ffffd087
ffffd516
ffff9e7e
ffffdbfb
00000c88
ffffeefe
ffffd982
ffffa34d
ffffd77c
ffffeeef
ffffb9d4
ffffe901
ffffeedd
ffffe204
ffffa928
ffff8ccb
ffffb834
fffffe3d
ffffea04
000002bf
ffffc65e
ffffc7d5
00000624
00000560
00000781
00001f26
000008a9
ffffe923
ffffddaf
fffffca1
ffffda52
ffffe0c3
ffffe43c
ffffe27c
ffffd3e8
ffffc3d1
fffff1e2
ffffc944
ffffa7a5
ffffeccd
0000217d
0000040b
fffff065
ffffb633
000009b4
00005db6
0000710b
00007099
00004f35
00000c15
fffffd71
00000234
ffffd792
00003eae
00000427
00000412
00006535
00003c1e
fffff4ca
ffffc2c2
fffff0eb
000009f7
fffff3af
ffffe4cf
ffffdbed
ffffc853
ffffaac5
ffffe66c
00001c84
00001deb
ffffee36
ffffbe3c
00001be7
0000427e
000053ac
00007326
00007b70
00004fc6
000023c2
000016ef
000026a4
00003fad
00002762
fffff944
000041a2
000052fe
00002ffa
00000e73
00000ae5
00001628
fffff119
ffffe2d7
ffffe866
ffffad92
ffffb3e9
fffff9a2
0000200c
00002bd5
ffffec14
ffffacbe
00000f7b
00003108
00004b6a
00006e93
00006ecc
000052d6
00002112
00000b02
00002442
0000481e
fffffc13
000000e1
00002d01
000013ad
ffffffbf
fffff32a
ffffe412
0000027e
fffffc63
ffffeeaa
ffffda26
ffffcba7
ffffcaaa
00000aba
00003f72
0000244b
ffffd29c
ffffc393
0000124f
fffff5e3
000034b7
0000755e
00007c2a
00003efe
fffff365
000033f7
00001592
00004555
ffffffbf
fffffccd
ffffffbf
ffff8d00
ffffb376
ffffcb9f
00000a19
00001faa
00000eb7
ffffe979
ffffea28
fffffb7b
fffff705
0000359a
000056d7
00002052
ffffdd74
ffffe826
00000271
00000e36
0000473a
00005e88
0000426d
ffffff0c
ffffd54f
0000197d
ffffd9d3
fffff44c
fffff8a3
00001eed
0000083d
ffffad6b
ffffbff7
ffffd17c
000019a0
00002997
00001f90
ffffff01
fffff3ca
fffffcc9
ffffd988
00001a7e
000052ca
0000235a
ffffcee9
ffffb6bb
ffffe015
fffff0c7
fffff65e
00000177
ffffeb1b
ffffcfab
ffffd9a2
00001805
fffff1b2
ffffedc2
00000418
00002149
000008df
ffffa654
ffffe515
ffffeda7
00000262
00002659
0000183e
ffffdd4e
ffffeb3d
ffffc8ec
ffffc4bd
00000b1d
00005229
00003ac9
ffffcb09
ffffc66c
fffffc8a
00000041
ffffeadc
fffff1a1
ffffd297
fffff41c
00000f3e
0000602e
00001cc7
ffffb124
00000506
00000375
00000367
000011fa
000023ca
00000dc0
ffffdaf9
00001dd2
000002df
ffffcc00
ffffc59d
ffffc3b3
ffffdb77
00001fa2
0000460e
00003205
00000972
0000231b
000030f5
00000d9a
fffff0aa
ffffebe3
ffffdfd9
00001bf0
00001ee7
000092d0
00001d51
fffff95d
0000081a
00000287
000017c3
00002d44
00003e0f
000019c5
000003db
00002c1b
fffffe1d
ffffda01
fffff1be
00002a77
00001e78
000041b4
00005c3f
0000425e
000047d8
00003675
00002e6a
ffffec11
ffffe001
ffffcef4
fffff7f6
000005a8
00000506
00007b0a
000006d9
fffff541
fffffef2
fffff4ba
00001152
0000318e
00004d5e
00001053
0000141d
0000256b
00000b97
ffffc66d
fffff314
00001a58
00004725
00004941
00005f48
00004fe6
000043b3
00003923
00001bce
ffffe085
ffffbd8c
ffffce8d
ffffd048
ffffda7d
ffffb960
00003a7a
00003bfe
fffffe9d
00001e7f
fffff1c6
ffffe395
00000e75
00003fe3
00002eef
0000439c
00000e3d
000017fb
fffff4a5
fffff30a
ffffe7d0
000024c0
00003bdb
000038bb
0000297d
00000253
fffff9d8
fffffec8
ffffdfe0
ffffc1bc
ffffc9e0
ffffc54a
ffff8e31
ffffb41b
0000286f
00006642
fffffc9c
00001839
00000ec6
ffffe8d4
fffffb36
00000df4
000012dc
fffff55b
0000234e
0000092d
fffffcb0
fffffbff
ffffd8de
ffffe095
ffffcf59
ffffd8ad
ffffe679
ffffd4ab
ffffcc2d
ffffdbc7
ffffe8f1
ffffbb1a
ffff8f92
ffff9abb
ffff9780
ffff8dd4
00000ede
000018ce
000006aa
00000163
fffffcc2
fffff8a6
fffff279
ffffed7f
ffffe08b
ffffd61a
ffffc72f
ffffb834
ffffc4e4
ffffbc80
ffffb8d4
ffffd741
ffffabf2
ffffa31c
ffff9af8
ffffb02a
ffffc354
ffffb8f1
ffffa830
ffffc40b
ffff9f66
ffffb144
ffffaf60
ffffc349
00000d8a
00002b05
fffffed0
fffffafa
fffffa83
fffffc1a
fffff78e
000032f8
000011a5
ffffe35d
ffffc5f3
ffffb4b9
ffffb5ab
ffffd09d
ffffb48e
ffffaf3c
ffffa0c2
ffff9d25
ffff8c8b
ffff80e9
ffffaff4
ffffb334
ffffb036
ffffcaf0
ffffce49
fffff17f
ffffdcc3
fffff0c0
0000463a
00002312
fffffa16
fffffb7b
00000719
fffffe09
fffff851
0000019b
fffffd0d
ffffee4f
ffffdfd7
ffffe7d8
ffffd5ff
ffffdb99
ffffd0e7
ffffa099
ffff825f
ffff8f37
ffff7774
ffff68e0
ffff96f8
ffffb169
ffffc5da
ffffdf7c
fffff545
0000054a
ffffecd9
fffff5f7
fffffb33
fffffcf5
000000e1
000006f7
fffffe2a
fffff735
fffffa74
fffffe18
fffffbf5
fffffe02
00002d43
00002588
00002257
fffff0da
ffffc9b0
ffffe3ec
ffffbad3
ffffb5bc
ffffcf39
ffffd311
ffffed9f
ffffeb68
ffffe657
ffffedee
ffffe698
ffffcb72
ffffd5ba
000001ce
000004d4
0000077f
0000017d
00000184
ffffff4a
00000382
0000013e
000000fe
fffffbe2
000003b5
fffffd36
ffffffbf
ffffff69
000000d7
0000011f
fffffb91
ffffdf0a
ffffe40d
000004ff
ffffcf29
ffffd887
00000276
00000114
000005d7
0000030d
fffffd64
fffff8af
fffffecd
000004ce
000008ad
00000070
000006ba
fffffec6
fffffd2d
fffffb7d
ffffff4c
000004ae
00000862
00000041
00000865
ffffffb0
fffffbd6
000006c7
00000193
000001d8
000008af
0000051d
00000840
fffff9bb
fffff94f
000002c9
000005e0
fffff82a
ffffff1f
0000081e
000002f1
ffffffb4
000004b7
ffffff45
ffffffbf
fffff796
000008da
00000716
0000058c
ffffff59
ffffff44
fffffe49
fffffbc9
000005b1
fffffd1d
ffffe7f4
fffff430
00000689
fffffe40
000007f0
00000190
fffffd25
fffff947
fffffb12
000006b9
fffffcd1
0000061d
0000034e
000008ce
00000299
00000665
00000248
00000481
000004bb
0000072f
00000719
000001c0
00000694
0000021e
fffff4ff
fffff4c6
fffff946
ffffedf2
fffff486
fffff6fc
fffff9d0
fffff6e7
fffff92f
ffffef5e
fffff617
ffffedb3
ffffef1b
ffffe7a2
000001fe
00000718
fffff82a
000006b0
fffffd9a
fffffd7c
fffffa51
fffffcc9
0000079a
fffffd48
fffffb59
fffffa02
ffffffb2
000003db
fffff3ab
fffff7cd
ffffece0
fffff187
fffff3a9
fffff752
ffffe89d
ffffed8d
fffff2be
fffff952
fffff0df
ffffeb99
fffff279
fffff6de
fffff7b6
fffffb3f
fffff984
00000872
000002dd
fffff8ae
fffffa93
000001c4
ffffffbf
000004ce
fffff794
fffff887
fffff93b
00000889
fffff163
fffff426
fffff88a
fffff49a
fffff4e9
fffff275
ffffe8e9
ffffebc3
fffff33b
fffff123
fffff104
ffffeaf6
fffff705
fffff93b
fffff489
fffff870
fffff829
ffffff9f
fffffe7e
fffffe05
0000077c
fffffaa8
fffff9c5
fffff6f1
fffffaac
fffff723
fffff987
ffffedfc
ffffecce
fffff90a
fffff4b6
fffff793
ffffefd4
ffffee0e
fffff180
fffff28f
ffffe8fc
fffff1cd
fffff735
fffff8eb
ffffee6b
ffffea81
000017e4
00000aeb
00001684
00000041
0000170b
000007bd
000002cf
000003c8
fffffd57
fffffd0b
fffff7ba
00000915
fffff156
ffffeae6
ffffee10
ffffef80
fffff4ed
ffffedb1
fffff53f
ffffea93
ffffeebe
fffff6b0
ffffecd4
fffff410
fffff39b
fffff9b9
ffffedd8
fffff2c2
000009f7
000016aa
0000156b
000011a9
0000121e
fffff8ec
00000892
fffffd1b
fffffc54
fffffe5b
00000642
ffffecf0
fffff595
fffff18e
ffffeef8
ffffec39
fffff699
fffff5ef
ffffecba
fffff2d6
fffff2be
ffffec37
fffff73d
fffff441
fffff57a
ffffeaff
fffff167
ffffe8f5
0000180c
00000883
00001098
000013c9
00000ea2
fffff757
fffffa58
000003db
00000333
00001750
000014ab
fffff0e2
00000b08
ffffebfe
fffff568
fffff0c6
fffff547
ffffda46
ffffd87c
fffff81e
00000c5a
000001cb
000008e2
ffffe87e
ffffe249
fffff4f8
fffff82f
ffffed52
00000d02
00000fc5
0000134f
000007f5
00000dea
0000044e
000002be
ffffff8c
00000903
000008b8
00000f56
00000974
00000b46
fffff4f2
ffffe7cc
fffff66e
000013a8
0000092b
00000a3b
000016e0
0000045b
00000f53
ffffe383
ffffe4f6
ffffdd5b
00000a96
fffff8e1
fffff454
000013ec
000010fe
00000b2b
00000ef5
000008a1
00000f6a
ffffffa4
fffff9a6
fffff991
00000d10
0000163f
00000ffd
00000f63
fffff777
fffff7ef
000002ab
000006b2
0000037a
00001124
0000063d
00000d21
ffffeeeb
fffff62f
fffff7b7
ffffe8bd
ffffe606
ffffee6f
ffffecf8
00000cbf
ffffebb9
00000ee8
000012f3
0000070b
00000cd9
00000270
000003d1
fffffaf4
00001287
00001180
00000f4c
000014cc
fffff0cb
ffffed42
00000eac
00000300
000008e2
00000718
00000a30
00000839
fffff352
ffffe942
ffffeee2
fffff0a5
fffff9b6
fffff7aa
fffff064
ffffeb03
fffff270
fffff50d
00000fc2
00000e55
00001813
fffffd81
00000741
fffffe9b
fffff9a9
00000352
ffffff0e
ffffed56
fffff7c9
ffffe97c
ffffeffb
00000f08
000010a0
00000777
00000744
ffffecdc
fffff2d8
fffff32b
ffffe859
ffffed9d
ffffeb0b
fffff8b8
ffffe8da
fffff3c1
ffffe7a8
ffffec99
fffff055
ffffffa6
00000866
0000036a
00000235
fffff6dd
fffffa59
000001c5
fffffc4a
fffff8de
fffff647
fffff7d8
fffff8f7
fffff11a
000007a1
000007e0
fffff6ea
ffffeb2b
ffffea66
fffff458
fffff6ef
ffffe960
fffff515
fffff643
fffff016
fffff32e
fffff9b6
ffffedec
fffff4c0
fffffe87
00000400
00000882
00000496
00000274
000001f9
fffffb52
000007ce
fffff120
fffff526
ffffec20
ffffeb30
fffff8b6
ffffe722
fffff409
ffffeef5
ffffea65
fffff5f7
ffffede0
ffffed90
ffffe545
ffffec57
fffff193
fffff6f0
ffffede9
ffffeadc
fffff047
fffff05c
fffff88b
fffffca6
000008f5
fffffe95
000001b7
fffffd89
000000e7
00000e01
00001862
ffffeb11
ffffebac
fffff0e6
fffff8a7
ffffec34
fffff1ac
ffffec0c
ffffe811
ffffe8ef
ffffe8e4
ffffe3b8
ffffedfb
ffffe8b8
ffffee8c
ffffe8f7
ffffee60
ffffeaa1
ffffeb4a
fffff1cf
ffffe7ae
fffff5db
fffffcd0
0000012b
fffff9c5
000000b7
00000515
00000e64
ffffed6c
ffffe7c5
ffffe957
ffffefd9
ffffeb02
ffffee7c
ffffe7fa
ffffec12
fffff948
ffffec2a
fffff7ee
00001217
00000896
fffff37e
ffffed1b
ffffeb4b
fffff2b1
fffff0b3
fffff4d7
fffff872
ffffed77
fffff8e0
fffffb8c
fffff997
000007bd
000002aa
ffffeacc
fffff686
fffff38a
fffff5a0
fffff7af
ffffe9e6
ffffef5c
fffff24a
ffffec92
fffff290
ffffeebd
fffff96b
fffff09d
ffffcaa1
00000900
fffff89c
ffffec89
fffff6ad
ffffeb1a
fffff957
ffffebd4
fffff4d4
ffffe9a0
0000012a
fffffb9a
ffffffbf
000000eb
fffff062
fffff8fc
ffffef96
fffff223
fffff3a0
fffff87b
ffffeb8e
fffff7e1
fffff514
fffff140
ffffe93b
fffff95a
fffff4c7
ffffe9aa
ffffdf2e
fffff5b8
fffff18d
fffff67c
fffff149
ffffebc1
fffff54b
ffffef36
fffff8f5
ffffee4d
fffff2f5
000004da
000007eb
ffffffb9
ffffe9cc
fffff39d
fffff6c2
fffff8fa
fffff45a
fffff663
fffff301
fffff5d4
fffff1c6
ffffeac0
fffff7e7
ffffe7d8
fffff86c
ffffe7eb
ffffe639
ffffec80
fffff84f
fffff282
ffffeb4f
fffff7ab
ffffef68
fffff1de
ffffeb16
ffffef66
fffff40d
fffffed2
fffffb8d
000007f7
fffff947
fffff2f2
ffffe879
fffff833
fffff608
fffff921
ffffe8b2
ffffebe2
fffff967
fffff0ca
fffff266
ffffee8a
ffffec46
fffff35b
fffff776
fffff2cb
ffffef62
fffff4c5
ffffef87
ffffec81
ffffe84a
fffff17b
fffff4a4
fffff966
fffff7a9
00000351
0000048f
0000087d
ffffe89f
ffffec39
ffffecff
fffff24e
fffff265
fffff702
fffff48b
fffff36d
ffffe8c2
ffffee88
ffffec70
fffff1d2
fffff46f
fffff4be
ffffee3c
fffff711
ffffebc3
fffff79c
fffff73b
ffffeb6d
ffffe8df
ffffeec0
ffffeb9d
ffffe845
fffff9ed
000007a6
fffff9fc
fffffb76
fffff2f4
ffffec24
fffff858
ffffeb15
fffff4e5
fffff4fb
ffffef99
ffffe9bb
fffff3ba
fffff062
fffff041
ffffef72
ffffeecb
fffff1b7
00000ee0
00000b49
fffff839
fffff6bf
fffff0f1
fffff20e
ffffecbd
ffffeb41
fffff8e2
fffffebd
fffffb97
fffff703
fffff948
0000012f
fffff139
fffff5f8
ffffef5c
ffffeb23
ffffe869
fffff43f
ffffeb9f
fffff8b3
ffffef8e
fffff7e6
fffff2f6
00000a82
00000a78
00000d1e
00000801
00000d6d
00000d54
00000702
00000979
00000953
000008e8
fffffb7b
000008a5
fffffb3e
000002f7
fffffa83
fffff9c5
fffff979
00000535
000004e8
fffffaaf
ffffedac
fffff46a
ffffef4d
ffffe7dc
fffff0d8
ffffecf3
00001502
000016db
0000097b
00001055
00001420
00000cc3
0000023e
00000e32
000017c0
00000dca
fffff96c
0000016a
fffffb59
fffffbc3
fffff932
000004b3
0000005c
fffff796
fffff928
000007d1
fffffd13
00000240
000002d2
000013b0
0000149d
0000069e
000013ca
00000722
0000151c
00000cae
00000ca5
00000d65
00000831
0000082a
0000094c
00000ccc
0000078c
00000556
fffffe52
fffff82a
fffff949
0000006c
fffffb2f
fffffb62
fffff799
000001ed
fffffce0
0000041e
fffffc1c
0000023f
0000048e
00000ea3
000014d0
00000ea7
00000df1
00000da6
00000897
00000c14
00000391
00000d94
000009a5
fffffea5
fffffa01
00000248
00000739
00000554
0000053c
fffffe3f
ffffffbf
fffffbbf
fffffd56
000004f4
00000264
fffffe5c
000003bf
00000675
000004db
00000883
fffffc9c
fffffd63
fffffde0
fffffd08
fffffca3
fffff86a
000000a7
00000434
000006e9
0000019d
fffffd7a
fffffb4a
fffff7da
fffffac0
000004ad
000000fc
fffff6ec
00000472
fffffb0e
fffff886
000001b3
00000132
ffffffbf
0000005a
00000395
fffff8e7
0000010b
fffffb09
00000699
fffff906
0000062c
fffffedb
fffff70b
ffffff39
0000028f
000001ce
fffffc07
0000089a
ffffffbf
fffffa9e
0000086e
00000071
ffffff55
fffffaa0
ffffff7c
fffff9b5
fffffb6a
fffffbc6
000004d5
000004f1
ffffffbe
fffff9ff
000001e2
00000103
fffff974
000003de
fffffe90
0000004e
00000837
fffff760
00000385
fffffa17
0000025c
fffffea1
00000377
fffffadd
0000014e
ffffff7c
0000062c
000006c0
000006bc
fffff6e7
00000684
00000270
fffff724
0000076f
00000123
0000067f
fffff85f
fffffc60
00000325
fffffcfb
fffffe4f
fffff838
00000290
00000467
fffff9bf
fffffbd9
fffff954
fffff722
fffff90c
000000ff
00000537
00000875
000004ba
ffffef64
fffff068
ffffec83
fffff1ee
ffffeefc
ffffffbf
fffffd5b
fffffee4
000005c7
fffffdf5
000002ad
fffffc18
00000745
00000872
00000458
0000052f
00000891
00000800
fffffa5e
00001459
00000ead
00000dcc
00000a91
ffffedd4
fffff18e
ffffebfc
ffffe934
fffff3e8
ffffe7ea
fffff3a8
fffff560
ffffe86f
fffff0a0
00000546
00000763
0000053a
fffff99b
ffffff89
ffffff06
fffffed2
fffffe0a
fffff9e6
000005bf
ffffffb3
00000831
000008ee
00000141
00000e81
000015f7
00000cd3
000014a3
ffffe96e
fffff6e9
ffffeb90
fffff3e3
ffffec31
ffffec8a
ffffee44
fffff652
fffff81c
ffffeaa1
00000ff5
00001834
0000034a
000000d6
0000015e
00000805
00000051
fffffe07
000005d8
fffffaa3
fffff9cc
ffffecae
fffff468
ffffee22
fffff322
fffff29c
ffffecbf
fffff55c
fffff0fd
fffff65e
fffff7c8
fffff3e9
fffff4f1
ffffeb3b
ffffea86
fffff117
ffffead5
fffff8fe
0000169d
000008d1
00001124
fffffb8e
fffff724
00000743
ffffff97
fffff8d8
00000901
000002a3
0000042f
ffffe83d
fffff200
ffffefb3
ffffe7db
fffff64e
fffff5ec
ffffefd5
ffffec37
ffffecc3
fffff3ab
ffffe82e
fffff9c4
fffff65b
ffffeb77
fffff7ed
ffffebe4
fffff159
00001099
00000cdb
00000fa9
00000868
000005f4
0000050f
fffff762
ffffff83
00000607
fffff884
00000885
fffff614
ffffef2f
fffff915
fffff8f4
ffffef09
ffffee02
ffffeeb4
ffffed3e
fffff89f
ffffeec1
fffff724
fffff425
ffffee49
fffff15c
fffff3f2
fffff440
fffff31a
00000fe9
000015c2
000006f5
fffffe1c
00000831
00000337
fffffc3c
0000029e
00000297
00000725
fffff97d
fffff399
fffff673
ffffe90f
ffffe81a
ffffef5c
00000b70
00001329
00001763
00000bdb
fffff340
ffffe823
fffff477
fffff040
fffff13b
ffffed4d
ffffeb5f
ffffe929
00000e6f
0000094e
000013d2
fffff928
00000217
00000883
00000041
000006f9
fffffa0b
000001d6
000003c2
00001822
00000c24
ffffe867
fffff128
ffffedef
00000cab
00000e8a
00000a8c
00000b6f
fffff3a8
ffffe7cf
fffff6e4
fffff05b
ffffec1b
fffff204
000015e0
00000f36
00000dd9
000011d3
00001287
000009e7
00000500
000000b1
000004bc
fffffd38
fffffa51
000001a0
fffff8e6
00000ed7
0000153f
fffff919
ffffef73
ffffeb79
000017d3
00001347
000016be
00000a48
ffffed51
ffffecc9
ffffee63
ffffef55
fffff595
0000151b
00000d9c
00000cfd
00000c62
00000d3e
000007d3
00000705
0000065a
000001fd
000004a5
000004e8
000003d1
fffffed6
000003c8
00000e5f
00000eec
fffff918
fffff687
00000f9a
000009be
00000f05
0000084c
000013ba
fffff19a
ffffec8b
fffff8a3
fffff4b2
fffff697
ffffec5e
00000966
00000dcc
00000bee
00000e51
00000d7f
00001116
00000069
000005e1
fffffdf7
00000322
000006cd
ffffffbf
fffffb57
00000534
00000758
ffffed34
ffffeae2
ffffeffa
00001278
00000fca
00000a4d
00000edb
ffffed5d
ffffebcc
ffffe8fe
ffffede4
ffffe8ac
fffff8cf
fffff473
000011fd
000011d1
000008bf
00001441
00000d14
000002e9
fffff8fc
000002eb
0000023f
00000178
00000400
00000182
00000528
00001044
fffff054
fffff759
ffffea46
ffffe9b1
fffff597
fffff252
fffff225
fffff3e2
fffff638
fffff90f
fffff676
ffffed95
fffff529
ffffe822
ffffee99
ffffef42
ffffef4a
00000b15
00001565
fffff7a8
0000013d
fffffa9d
0000032a
0000044d
00000767
fffff719
000001dc
00000a84
fffff067
ffffe7d0
ffffeb08
fffff064
ffffee1f
ffffe88a
fffff157
ffffeb0e
fffff040
ffffefe4
ffffe963
fffff888
fffff11d
fffff002
fffff043
ffffec39
fffff6db
fffff406
fffff5ef
fffff211
00000533
00000492
fffff7df
fffffa11
00000416
fffffb19
0000025e
00000f48
ffffecbf
fffff0d2
fffff89c
fffff110
fffff40c
ffffe9f5
ffffef02
fffff573
fffff372
fffff0b1
fffff6db
ffffeff1
ffffe894
fffff539
ffffee7c
ffffea94
fffff098
ffffee14
fffff96f
ffffe9da
00001246
fffffc5e
000006e1
fffff8fb
0000082e
fffffb45
00000295
00000e73
fffff508
fffff26a
fffff6b3
ffffed81
fffff254
fffff6e9
ffffe8d2
ffffedae
ffffe7d8
fffff56f
fffff47b
00001472
000012ac
ffffed04
ffffefdf
fffff1a3
fffff8e7
ffffebf4
fffff018
fffff80f
000010e2
00000855
fffff91e
fffffa76
fffffec6
fffff502
00000dfb
000009a8
fffff8bf
fffff952
ffffec37
ffffe95c
fffff55e
ffffea1e
fffff644
fffff720
ffffeee8
fffff346
ffffead3
00001126
000006c6
fffff43c
fffff5f6
ffffef0d
ffffed62
fffff85d
ffffe96e
fffff0ac
0000035c
fffff8a2
000006fe
fffffe78
fffff210
fffff348
00000d83
0000141a
ffffeea7
fffff0c1
fffff04b
ffffec21
ffffeec2
fffff5dd
fffff75b
ffffebb4
ffffee4b
fffff017
fffff403
ffffe822
ffffefad
fffff0fb
ffffebf2
ffffebd3
fffff8b3
fffff0e0
ffffeed5
fffff1b7
fffff0b2
00000897
00000516
fffffe1e
ffffe8eb
fffff400
fffff6b3
00001761
000007b2
fffff567
fffff0ad
ffffea21
ffffedec
fffff2a5
fffff98d
ffffeb7b
fffff803
ffffeed9
ffffeeac
fffff5b5
ffffe897
fffff649
ffffec7c
fffff83c
fffff644
fffff3a2
fffff7fe
ffffee9c
ffffe965
fffffc2c
fffff9b3
00000663
fffff852
fffff6a7
fffff23b
00000684
00000d66
ffffe873
fffff759
ffffef6d
ffffef12
fffff583
fffff2b8
fffff817
fffff890
ffffe7e7
ffffe841
ffffeed5
fffff137
ffffeaf6
fffff7e0
fffff6d2
000010e7
00001671
ffffefbb
ffffefb9
fffff636
00000145
000008a1
fffff747
ffffef88
ffffefdd
fffff39d
ffffee23
fffff0ab
fffff2a5
fffff86b
fffff78e
fffff8d0
ffffed28
fffff55f
ffffeacd
fffff29f
ffffeee7
ffffe980
00000b9f
00000dbd
fffff0fa
fffff43b
00000e8c
0000180f
00000948
00001694
fffff7d9
ffffff58
fffffb46
00000041
0000037f
000003e6
fffff6aa
fffff6c7
fffff23f
fffff45e
ffffe9e1
ffffee3a
fffff49c
fffff8db
fffff956
ffffebfc
ffffecd2
ffffe83c
00000c01
00001056
000010ca
00001458
fffff79d
000007e0
00001725
000012b7
00000703
00000f8a
ffffffb1
00000406
fffffa4f
00000900
fffff87e
000000bd
fffff824
fffff934
fffff04b
fffff525
fffff64a
fffff99e
fffff6c6
fffff413
ffffef19
ffffecae
00001140
00000661
00000e91
000017ac
ffffe81f
ffffedc2
ffffeca4
fffffebe
0000066c
fffff878
fffffe8a
00000142
ffffffbf
fffff981
fffff811
000007f4
00000406
fffff983
fffffcb4
fffffe6a
000000ff
fffff824
ffffeac7
ffffeb27
fffff918
fffff7ba
fffff085
0000070a
00000a1a
00000bcc
00000ccb
ffffeda5
ffffe846
00001280
fffff8a6
fffff6ff
fffffd27
00000388
fffff9b5
0000006b
000007b5
000000ec
0000032c
fffff8a1
00000762
000000a3
000006fb
fffff8b5
fffff7ba
00000650
fffffcf9
0000011a
00000fc3
00000be3
00001386
0000117a
fffff794
fffff78c
fffff81c
00000fb8
00000e87
000011ae
fffff7a5
0000022c
00000293
fffffb81
000005d0
00000691
fffffd75
00000779
00000707
fffff955
000000a6
fffffead
00000454
00000041
00000100
fffffcaa
fffffb70
fffffd00
00000b5e
000014da
00000c9a
0000058d
fffffc03
00000483
fffff912
000005c6
fffffb7d
00000048
fffff74a
fffff6f1
000008be
000005d5
0000067f
fffffd0b
fffffd7d
fffff74b
0000079e
00000440
fffff7be
fffffbc1
00000871
00000041
fffff926
00000514
000007af
0000062b
fffffa91
fffffc42
fffffd43
00000643
0000039d
000000ea
fffffe98
fffffa3a
fffff7fc
00000264
00000491
0000027f
fffffba6
000006e0
fffff8e7
fffffd68
00000488
000001a6
fffffec7
0000013e
fffff76e
fffffe00
fffffb6e
0000068b
00000673
0000074e
000006bd
fffff6fa
0000068e
00000215
fffffc99
ffffff5d
000006d0
00000900
fffffea1
000004b0
fffffcf5
0000030b
fffff8a7
000005a8
fffff8e4
fffffd73
000008a8
000000c3
fffff769
00000177
fffff73e
fffffbe0
000000ae
0000067e
fffffc30
00000041
000002f0
00000859
000003f6
fffffaff
0000006b
fffff5c1
ffffe417
ffffcaef
ffffd61d
ffffed9b
fffff624
fffff18f
ffffee09
fffff2d8
fffffb16
fffffde6
fffff98a
fffff748
fffffe2b
000002d5
fffff834
00000137
fffffebd
fffffbc3
ffffffbf
fffff93f
fffffd17
000000db
00000411
ffffebbe
ffffe207
fffff920
000004f5
000001e6
000009fb
fffff9a2
ffffe4bc
ffffc1d0
ffffe2d8
ffffe14f
ffffe2a9
fffffc54
fffffbce
fffffdc3
ffffe381
fffffb6d
fffff775
fffffa84
0000024f
fffff6f5
0000049e
00000629
fffffeb9
fffffaff
fffff0f7
00001fb7
00000f44
ffffeb2d
ffffdf18
000003f1
00000bac
00000560
00004629
000066ca
00004737
000025a8
000010e6
fffff9e7
ffffd66c
fffffd69
00000853
fffff5fe
ffffe7dc
fffffa28
fffff224
00000d92
ffffc7b6
0000047f
00000565
00000441
fffffe16
00001bcc
00000364
000049d4
fffff3ed
fffffc46
ffffee4d
ffffe2d1
ffffea2b
ffffe473
0000010d
ffffeb8d
ffffe4a9
fffffb14
00000041
fffff70f
fffffbf9
fffffe19
ffffe2fb
ffffc46b
ffffe5a7
00000f35
fffffe67
00001c9c
00001fce
00004d82
000007d7
0000040f
0000067a
0000058a
fffff0a6
00000975
ffffefaa
fffffea3
000012ab
ffffef19
ffffda70
ffffe155
ffffe7b4
ffffc972
ffffbebf
ffffb008
ffffcf80
ffffd524
ffffd3c9
ffffefa3
fffff5ef
00000c9d
fffff406
fffff510
fffffc71
0000156e
00001073
00002837
0000163b
fffff7c3
000021d3
00003137
00003b4e
00000041
ffffe012
ffffe08b
ffffd1cc
ffffe41d
ffffe04d
ffffc8ec
ffffe4f7
ffffe0fd
fffff4fa
00000258
000020a7
0000360f
0000370f
0000230e
0000122d
000013f9
fffff8ef
fffff0b5
ffffdd2e
ffffdb0b
ffffef03
0000395e
00001b17
000004c0
00003eff
00001029
00001c6a
ffffcd20
ffffa11d
ffffcb78
ffffd22f
ffffd668
ffffd059
ffffda92
ffffeb64
000019dd
00002dff
00004512
00005c8a
00006034
00005a98
00004291
00001a98
000017a4
00000a23
fffffde4
ffffd8e2
ffffe573
000000d1
000025e5
000029bc
00000a86
0000297f
00001feb
00001df5
ffffe126
ffffadd8
ffffcdd0
ffffe5ad
ffffcf86
ffffd1bd
ffffd525
00001547
00004318
00005431
00005a06
0000471d
000033e8
00001e41
00002089
00001933
00001b0d
000025da
00002060
00001721
000026e4
0000394a
000034fa
00000e1a
0000396c
00001e4c
00002c7a
00003c20
ffffe7f7
ffffdc7e
ffffea5b
ffffd56d
ffffd77b
ffffec49
fffffc01
00000fc6
000035bd
0000317d
00003934
00002b04
000008a0
fffff2d2
fffff799
fffffc0e
00000358
00001dcb
000031af
00000a5f
0000204c
0000817b
0000503d
000014bb
00003758
0000266c
00003223
00002f1c
fffff61c
ffffe87d
ffffebf4
ffffe753
ffffefaa
00000b55
fffff986
0000066d
ffffee24
fffffd0d
000001d6
fffff1da
fffffa23
ffffdd6b
fffff694
ffffe720
00000d94
fffffb48
fffffb76
fffff4ed
fffffa82
00005ad2
00006018
ffffdfd6
00002efd
ffffecd6
00003f55
00003581
00000dc2
ffffdb7c
ffffd77a
ffffebf0
000004f6
000001f4
fffff250
fffff9ab
ffffd36e
ffffd7ab
ffffd3f3
ffffe706
000005d8
00001239
fffffeec
ffffdcdf
ffffe67b
ffffbe2e
ffffd151
ffffdef2
ffffdf46
00003f97
000058d2
ffffd3f1
00000569
00000ce1
00002306
00002d32
fffffe7d
fffff0e3
ffffcacb
fffffa72
fffff8a0
ffffeba3
fffff077
ffffd76a
ffffb657
ffffc9b0
ffffe144
fffffea9
000009f4
00000604
0000155d
ffffe297
ffffc9fe
ffffa300
ffffaaab
ffffa547
ffff99b3
ffffefb9
00000e96
ffffd84e
ffffd54b
00000fb3
000018d2
000025f1
0000104d
fffff4b6
ffffc4b8
ffffedcf
fffffba8
ffffef89
00000661
ffffdcec
ffffd884
ffffffbf
00000497
000002b6
fffffe2d
ffffff90
00000a25
ffffe954
ffffbdb8
ffffadc9
ffff96ca
ffff90d7
ffff9eec
fffff8f4
000019d0
fffffe9c
ffffd3c4
00000e91
00000beb
00000b53
ffffef39
ffffbb0d
ffffae49
ffffc687
ffffe285
fffffa02
00000b65
fffffb54
0000161e
00002650
00000a6f
00000abb
fffff3e8
00000041
00001b6b
ffffed53
ffffd8c8
ffffe00e
ffffbf49
ffffa17e
ffffdb75
00000a39
00000887
000001fd
fffff2f6
00000d8c
ffffdf30
ffffe926
ffffe792
ffffbf6d
ffffbd22
ffffb9bb
ffffb344
ffffe6e2
00000ba9
00001cee
0000447c
0000264e
fffff682
fffffbfd
ffffe318
00000f35
00002daf
00000049
fffffacb
ffffe9f0
ffffda7e
ffffbf2a
ffffe968
fffff092
00000aab
fffffd28
0000123c
00000910
00001166
fffffae8
00003124
fffffced
ffffbab6
ffffb30f
ffffbf0e
ffffd81b
00000f48
00002324
00002828
fffff36a
ffffc877
ffffe93e
fffff9cd
0000188b
000021bb
fffffe09
fffff088
ffffe543
ffffc70f
ffffae49
ffffa407
ffffbd5e
ffffeb35
fffffc00
ffffffbf
00001716
00000acc
000037df
00003224
ffffe88b
ffffbbed
ffff983b
ffff846e
ffff9f7e
ffffc933
ffffc04b
ffffc98a
ffffc789
ffffd247
000011f7
00000de8
00002978
000028ed
0000083e
fffff377
ffffe378
ffffd260
ffffb5ed
ffffa795
ffffc9e9
fffffe01
ffffeeb5
00001fe3
000033ca
000024c6
00003d23
0000384e
0000065f
ffffd4ca
ffff97eb
ffff6fbd
ffff614f
ffff8b3e
ffff79ed
ffff80f8
ffffb5de
ffffe074
fffffa5c
00000285
000026a3
00001a55
ffffec67
ffffe077
ffffd686
ffffbe8a
ffff9bc8
ffff8573
ffffd5f6
00001225
ffffe0b0
00000711
0000690a
000015a0
00002f92
00002a74
00002560
00001f6e
ffffe2fc
ffffae7b
ffff97f0
ffff9916
ffff8864
ffffbfb8
ffffdfea
fffff585
ffffe7fe
ffffe053
000007c5
00000263
ffffeefc
ffffd5f9
ffffc8f0
ffffb8b9
ffffb296
ffffb62a
000010f8
00000395
ffffe038
00000073
0000142a
fffff075
0000242d
000026f1
000037c0
000042ef
000033ef
00001202
ffffeaf7
ffffd8e4
ffffd717
ffffe66a
ffffe195
ffffee5f
ffffda2c
ffffc6d9
ffffec39
ffffe6cd
ffffe0bf
ffffc355
ffffbc86
ffffa97d
ffffa2ee
ffffb559
fffff78a
00000479
0000153b
0000031d
00001454
ffffe109
fffff93e
00001da1
00001ee1
000026b0
00003288
000026be
00001e7e
fffffddb
fffff894
ffffffbf
ffffeed2
ffffe45c
ffffe7e6
ffffe690
ffffdee6
ffffd181
ffffbfeb
ffff954e
ffff8876
ffff98a3
ffffb0c2
ffffcdce
ffffe699
ffffdc91
fffff931
000001d1
00002912
000000ce
00000302
00000cd4
00001cf7
00000bc2
00001ac3
0000079b
00001c87
00001d7e
00000281
fffffc48
ffffda88
ffffd0af
ffffe68e
fffff149
ffffd21e
ffffab74
ffff90e2
ffff9a5d
ffffa616
ffffbd22
ffffdbf9
00000845
ffffda2d
ffffc8cc
fffffc36
00000041
fffffc8a
00001b5f
00006bb6
000067fe
00004ac0
00001a52
00000f15
ffffebd9
fffff0df
000009f8
00001317
ffffe390
ffffe10f
ffffd993
ffffd0c7
ffffc7e5
ffffa62d
ffff7f57
ffff6e01
ffff9b29
ffffaa85
ffffcb0c
ffffb918
ffffe1bc
00000419
ffffd9fc
000001db
0000004a
00000301
00004652
00005bf9
000071e1
000076ca
00003d3d
00003f9a
00000b93
000009f9
000014fe
000011bb
ffffea80
ffffff9f
fffffc4b
fffff6d4
fffff1ce
ffffeba3
ffffa585
ffff9a6e
ffffcc61
ffffd759
fffff03a
ffffe148
ffffdc0d
fffff539
fffffd66
fffffd31
fffff77b
00000041
000026b0
0000193c
00004652
00008e74
00005f9c
0000388a
00003921
00003307
00004d24
00005b15
00002cc4
00003703
000035e8
00003710
0000290a
00000db5
0000225f
00001edb
00003d33
00003abf
0000359c
00007d60
00001e31
00001598
00000143
00000913
000003be
fffffc6c
fffff935
0000267b
00003929
00000e0d
00002dbe
000056a3
00004ae9
00004fae
0000519a
00005e13
00007d18
0000ae4f
0000d733
00008e89
00008833
00006e8a
00007820
0000436c
00005a55
00006462
000059c6
0000417e
fffff901
0000226a
fffffc65
000000ef
fffff97c
0000034f
00000914
fffff81a
ffffe188
fffff67c
00000e62
000033d1
00004bff
00003b0b
000041c7
00002822
000036cc
00005e3c
0000963c
0000508b
00002d11
00003f43
00005a52
00004afe
0000447b
0000408a
000012cf
000000ff
000003df
ffffff9a
00000547
0000051c
ffffffbf
fffffa81
000007dd
000000ff
fffffbd7
fffffe89
fffffd75
fffffb76
000007c3
00000706
00000361
fffff8d5
fffffb87
0000047a
000001fb
00000505
fffffbfb
000005f4
00000087
000005db
000003ea
000002f2
fffff6e6
ffffff01
00000479
00000198
00000041
fffff74d
fffff796
000000bf
fffff8e9
fffffb13
fffffad2
fffffa86
fffff7cb
00001426
000034ec
fffff225
ffffe26e
fffface5
ffffb122
ffffde5f
ffffcfbe
ffffed56
ffffdb7f
ffffef70
ffffdd08
ffffe5b6
ffffda3d
000003aa
fffffde8
ffffffb7
fffffd9f
fffff7e2
0000057f
000003e1
000003f7
0000023a
fffff73a
ffffffbf
ffffe6b5
ffffe8db
ffffd4cf
ffffd0a1
ffffe8b9
ffffd6b3
ffffcc33
ffffe8ba
fffff992
000005a0
ffffaec9
ffff94eb
ffffc991
ffffd351
ffffbd11
ffffa9bf
ffffa5fe
ffff91e4
ffffaadd
ffffea36
ffffe3b7
ffffe0ef
fffffe52
000003cb
fffff6fc
fffffa1f
0000190d
ffffea15
ffffc499
ffffc575
ffffd969
ffffb7c6
ffffbbfa
ffffb493
ffffc826
ffffabef
ffffaeba
ffffcb2a
ffff89d5
ffff8fb6
ffff7c7b
ffff8772
ffff7cb8
ffffb986
ffffc0fe
ffffc1e2
ffffeec0
000002a0
ffffdddb
ffffddb2
ffffd167
0000055d
000006cb
fffffc65
000018a1
fffffdc3
ffffee4b
ffffcf63
ffffd26d
ffffc722
ffffc1a8
ffffb539
ffffcf86
ffffd908
fffff3c6
0000048a
00001545
00000c40
ffffe9b1
ffffd27c
ffffa41b
ffffba84
ffffea71
00000cd9
fffff70e
fffff46f
ffffba88
ffffab44
ffffc455
fffffe81
0000006e
fffff79c
ffffe958
000012c6
00001370
00001562
000010b8
fffff209
00000dc3
00000e6f
000012df
00002384
0000237d
00001204
0000109f
00000725
00001079
fffffe96
fffffe09
fffff84d
ffffde0f
000014e8
00001bc6
fffffd48
ffffb985
ffffcd4e
ffffbf90
00000f41
fffff793
fffff73e
fffffc70
ffffed1a
ffffd7f2
fffffd4a
fffffc49
0000029f
00001f3d
00003e9b
000007e4
fffffa18
fffff582
ffffe58c
ffffe150
fffffb34
00001321
00001ac7
ffffca77
ffffba56
ffffcbf7
0000132b
ffffdfae
ffffc487
ffff9c3d
ffffda21
ffffbaed
00000d6a
00000308
0000360e
000007b8
ffffec8c
ffffd612
00000cbe
00000fdd
0000148d
00000041
0000222d
00001b4b
000011f4
ffffe9c7
ffffda7e
ffff996e
ffffb020
ffffe94f
00002a82
00000f0c
ffffee2f
ffffeae1
fffff5e9
ffffd98c
ffffc167
ffff8910
ffffaec4
ffffe305
ffffd45f
00000762
00004b39
00000f7c
ffffca06
ffffd89a
00002749
00001533
000025e6
0000035f
0000216b
00004384
00002f8a
00001203
00000546
ffffec37
fffffe6f
00000ea3
00002d96
0000120d
000006e9
fffffc41
ffffe916
ffffa71f
ffff9fcb
ffff8e2d
ffffc253
ffffcb1b
ffffd5d3
00003a3a
000012bf
00000b8a
ffffd31f
ffffc459
00001199
00002383
00000ed7
000000bc
00002940
00002815
00001282
000013cb
000026f2
00004b10
00004eb4
000046e9
0000299a
0000082c
fffff640
ffffcf20
ffffb5e4
ffffc0ed
ffffc04b
ffffb0bb
ffffed5d
ffffd944
0000071a
00002ab5
0000072f
00000b4b
ffffc61f
ffffa2af
ffffee6d
00002053
fffff80d
ffffffbf
000020ef
00001a88
fffffcd2
00000738
000038c2
00005520
00008c19
00006b36
000024cc
ffffd4b3
ffffb322
ffff86de
ffff87d9
ffffda1b
ffffe0d6
ffffeb31
fffffddd
0000110d
00003856
00003397
ffffef44
000009c3
ffffe0e4
fffff500
ffffd2ca
000003ac
00001d52
00002aa8
00003384
0000043f
000007e6
00001707
000015ec
0000412b
0000984b
00006303
fffff45c
ffff9761
fffface5
ffff9cdb
ffffa3f1
fffffb0d
00000dd8
000001cb
fffffaca
ffffe89c
0000392a
00000130
000005c3
000015c2
ffffce88
ffffdd28
ffffc4d3
ffffc978
00000465
00003705
00000f3d
ffffdcfa
ffffd196
fffffde2
00000041
000024a0
0000709f
00005aaa
ffffd6c8
ffff91f5
ffff8b90
ffff8a62
ffffa710
ffffefa2
ffffed5f
0000054e
00000ee1
00006722
000041dd
ffffea21
fffff9b0
000036c2
ffffce8e
ffffae20
ffffc4d6
ffffaab9
ffffd7ba
00001cc0
fffff51a
ffffc8a8
ffffd6b4
ffffe25f
fffff01b
000025c6
0000563a
00004181
ffffe139
ffffa643
ffff87d4
ffffa407
ffffde92
000027d6
00006237
00006abe
00005ae8
00008117
00002bdc
fffff79f
fffffcef
ffffd1f3
ffffe1ea
ffffab7e
ffffdec4
ffffd811
ffffe5fa
fffff43c
ffffe2ed
ffffd7a1
ffffcf0c
ffffd2d0
0000107a
000053a3
000053cd
00002d5d
00000630
ffffde2e
ffffea11
fffff6d1
00001578
000036a5
00006222
00005217
0000520c
00000ebb
000027d4
00000041
fffffa1b
ffffc7e7
ffffc933
ffffe04b
ffffe8d4
ffffc57b
fffff360
ffffd149
ffffb00e
ffff9033
ffffccbf
ffffd501
00002198
000078f3
00004fd5
00001444
00001351
ffffd89b
ffffde56
00000a4e
00003b57
00002166
000035c0
fffff1c3
00002491
00002327
00002db9
fffffa6d
000007da
ffffe6de
ffffc7d2
ffffd3e6
00001876
ffffeb8a
ffffe78f
ffffa77c
ffff8542
ffff9659
ffffe4c4
00000351
00003750
00006968
000033f0
00001ae2
0000029d
ffffefa8
ffffe648
00001204
00002511
00002838
00002599
ffffeba6
00000b48
000042e6
00001a9d
fffffa02
00001666
ffffec31
ffffb938
ffffc3b6
ffffe7ae
fffffac4
ffffcd51
ffff9359
ffffa46b
ffffd7c3
000013c6
00003a8f
00004a2e
00005c14
00001753
fffff72c
ffffedb4
ffffe9a2
ffffe420
ffffec27
ffffe6d1
ffffee5e
0000194d
ffffeffe
ffffe17e
00001a95
00002eac
00000e76
00004142
000000c3
ffffef85
ffff87b4
ffffa185
ffffcbac
ffffb9b3
ffff988e
ffffc9e7
fffffc12
00003b13
000035b2
00004cc2
000014df
ffffffbf
ffffacd7
ffffae84
ffffca1a
fffff5eb
fffff31f
ffffa4a6
ffffd625
00001f2e
00001471
00001976
0000204c
00001e5e
ffffee0e
00002c6b
00000554
ffffeea0
ffffb475
ffff764a
ffff7b0f
ffffbb79
ffffa78e
ffffeb72
00001a49
00005c42
000045d6
000052e0
00000f53
ffffe0eb
ffffa835
ffffb7e1
ffffae75
00000ffd
000007d4
ffffa36f
ffffec1c
000059f7
00006935
0000316a
00005497
00001e76
000008d6
00000c9e
fffff486
ffffe45a
fffff2d8
ffff6b6a
ffff7e3e
ffffcd58
ffffe311
fffffdd7
000020f5
00004d18
00005f72
00002b5a
00000959
ffffee79
ffffebaf
00000688
000001f5
00000aa1
ffffee80
000003c8
000018db
000036cb
00003cbf
00003c28
00000d3b
ffffff59
ffffeeb6
ffffea49
fffff10f
ffffa050
ffffdcb5
ffffb212
ffffcd01
fffff657
00000240
000007cc
000008f1
00000e5c
00002243
00000088
fffffe56
ffffff30
00001bbb
00000189
000007d8
00001466
fffff898
00000de0
fffff82b
fffff711
00000ad8
00005744
000067ed
00000873
fffffadb
fffffa18
ffffe8e2
ffffbacf
ffffdc23
ffffe2fa
ffffe1fb
ffffd3c2
00000228
000005dc
ffffe3f4
ffffec52
ffffe080
00000665
00000dba
fffffe62
00000f94
00000721
00002e4d
00001443
00000e58
00002da8
000007f6
00000767
00003524
000038f9
00001915
000003bc
000005b7
fffffcca
ffffedcd
ffffb022
ffffe5fd
ffffe2c5
0000034d
ffffd91c
ffffe374
fffff904
ffffd7d0
ffffdf4b
000012fc
000025b1
00000fd1
fffffd1b
000029b3
00004d85
000038b8
00003e21
000019d4
00004fa1
00003ca1
000012cb
00000ea2
0000405d
ffffe1c6
fffffec9
ffffff83
fffffc38
00001ba8
ffffece4
fffff928
00000041
fffff686
ffffc5ce
ffffe4a0
ffffc662
ffffb6ad
ffffb426
ffffdbd9
00000f36
000016e4
00000209
00000f06
fffff7ba
00001f6e
00006403
00004578
00005311
00002468
000017ce
000032b8
00002196
00002204
00000153
0000058b
0000012a
000001db
000019a9
000005de
ffffeec2
fffffc25
ffffe908
ffffe6ab
ffffdf29
ffffd330
ffffda3e
ffffae53
ffffcdc1
ffffd1c0
ffffc8cf
ffffb932
ffffbb95
ffffb1f0
ffff8abd
ffffbc39
ffffe653
ffffc98e
00002cca
00001593
fffffc1e
0000024d
fffff9bf
fffff8fa
fffff82a
00000190
ffffd376
ffffdbac
fffffb00
000034ff
00003302
fffffbdc
ffffe2cd
ffffd742
ffffe9a5
ffffc72c
ffffddcc
ffffc14f
ffff9948
ffff76bb
ffff88ae
ffffb8f7
ffffab00
ffffab2b
ffffc51b
fffff25c
00000509
00000041
00001482
00000497
fffff709
fffff8ff
fffff9a7
000002d1
00000208
0000155d
00000ad4
000025e2
00002a37
0000284d
fffffce6
00000220
0000023b
00001b06
ffffd74a
ffffa885
ffffb04f
00001e76
000000e0
00005802
00006327
0000014c
fffff264
0000190b
000005b1
fffffdb9
000000ac
00000821
0000074f
0000036a
000002fa
00000093
000000a8
fffffc4a
0000034c
fffff93f
fffffdcd
fffffe11
00000234
0000054b
ffffffb2
fffffaa9
0000077a
00000118
fffff7bd
fffffb79
fffffe8c
00000419
ffffff5b
fffffbbd
00000230
000002c3
fffffda4
ffffff93
fffffb77
00000403
ffffffb8
0000080f
00000779
000006af
0000010d
fffff780
0000078f
fffffbca
000003c7
fffffea9
fffff99f
0000005b
fffff64f
fffffe08
00000ddf
00004dcc
000048b1
00008afd
00005093
fffff7be
000006c8
fffff948
000005ad
fffffaca
00000227
fffff6dd
0000020d
fffff8d7
00000100
00000881
00000597
00000113
0000070a
fffffe54
fffffd95
000003fc
00000a54
fffffc5e
ffffde0f
fffff0f0
ffffff9d
fffff97f
ffffd202
fffff892
00003052
00003247
ffffefdb
ffffe5f9
ffffdaf2
ffffee80
fffff7e4
fffff9cc
00001b46
0000196d
00000740
000004c2
fffff853
00000409
000002ce
000024a6
00000754
fffffe11
fffff9ec
000009a7
fffffc8c
ffffe8ab
ffffd652
ffffeecc
ffffef3a
ffffc3cf
ffffd176
ffffca05
000003bb
000007cf
fffff6fc
ffffd8a2
ffffdcf7
ffffe2cc
ffff9839
ffffc2c8
ffffd8e6
ffffff6d
fffffa99
00000587
00000697
0000046e
000003f4
0000250a
000026c8
00001ff3
ffffd64c
ffffd6f7
ffffdfa2
ffffcfbb
ffffd14a
ffffd857
ffffb90b
ffffb8c3
ffffdf04
000009d0
00001a58
00002290
fffff31f
ffffe482
ffffe372
ffffe21a
00000041
ffffeb3a
ffffddb6
ffffddb6
fffffbd0
0000142b
fffffe2f
00000862
00000089
0000445b
00002161
fffff58e
fffffd10
00001fc0
00002317
fffff296
ffffeb3b
ffffbd4d
ffff9853
ffff97de
ffffbe9d
ffffcfcc
fffff261
fffff8b7
ffffdcca
ffffd630
ffffcacc
ffffb931
fffff7b5
ffffee82
ffffd608
ffffd6e1
ffffd76e
ffffef76
ffffecd6
00000222
000021db
00000202
ffffc464
ffffe83e
fffff9c8
00000b8a
00000a78
ffffe938
ffffe822
ffffcecb
ffffd421
ffffd4a2
ffffc935
ffffc609
fffff432
000013db
00000c80
fffffc09
ffffe089
ffffc3f8
ffffd938
ffffca6a
ffffb4ae
ffffc00c
ffffcc18
ffffd3d5
fffff1d3
000002d5
00004a9d
fffff5ab
ffffeac2
ffffefae
ffffeb95
00001d5a
000023ea
000004c6
00001ec6
00002337
00000129
00001319
fffff555
ffffef30
000006ba
00000684
0000361f
00001ada
00000915
fffff7b2
ffffd6ea
ffffb0c4
ffffb898
ffffb400
ffffb76c
ffffd49a
fffff4e8
00000a81
00003df0
00002c7f
00000dea
ffffcd38
fffffee7
0000127c
000027b9
00002413
000025cd
00001a76
00000492
fffff01c
00000673
0000207b
00003e8e
000030fe
00004954
0000350c
0000336e
000014d3
ffffed43
ffffd2f4
ffffba4f
ffffbbdf
ffffa42f
ffffcef5
ffffc1e3
00003af6
000021e8
00003098
0000383b
000005f7
00000066
00001d97
00002edd
00003f87
00003344
00000214
ffffc5fa
ffffe14d
00000c9a
000048b3
00004a75
00004f9b
00005936
000034e3
00001579
ffffff77
ffffefd0
ffffddc3
ffffcb83
ffffb874
ffffaf8f
ffffd30f
ffffd646
000039b5
00003032
00003a54
000021d6
00000f0f
ffffe75f
000005e4
00001306
00002f87
000016d8
ffffd2a2
ffffbd9d
ffffd2c9
000027ae
00004f72
00004001
00006109
00003ac8
000026f6
00000943
fffffce6
fffff684
ffffe5e3
ffffe982
ffffc1c7
ffffb06e
ffffeb47
ffffffbe
000044f1
00002522
000012bf
000024d1
fffff587
ffffba9e
ffffcb1d
ffffeb6f
ffffe3d5
ffffdfcd
ffffbe32
ffffc85f
ffffce2f
fffff24c
00001c73
00000fbc
0000179f
000010b2
00000253
ffffe807
000011ab
fffff989
ffffe237
ffffe2da
ffffdae4
ffffc932
ffffeb58
00002c91
000013a8
000054fd
fffff9e1
00001a8c
0000067f
ffffc529
ffffc38f
ffffe2e6
ffffdba8
ffffd19a
ffffc081
ffffba5b
ffffb56e
ffffbb3f
ffffed55
fffff9cc
0000108d
000002cf
fffffcf8
ffffc8c6
ffffe5d0
ffffd644
ffffe8c6
fffff3af
ffffe105
ffffed45
ffffb504
00001aef
00002423
00002195
000023eb
00003411
0000047b
ffffce46
ffffe08d
ffffdbdc
ffffec23
ffffe412
ffffd58c
ffffa876
ffff9eaf
ffff9625
ffffe170
fffff38e
000001a9
00000354
ffffe6dd
ffffd56f
ffffc9d1
fffffa5a
ffffef73
fffff68b
fffff441
ffffe241
00000b7d
00000867
ffffff77
00001f8c
0000282d
00004cdd
ffffdcf8
ffffef44
ffffe8f1
ffffd653
ffffdfba
ffffe812
ffffd926
ffffc088
ffffbff2
ffffb847
fffff5db
fffffce5
0000023c
fffff332
fffff1b9
00000041
fffff37e
0000221b
00001843
00001954
00001b19
0000370e
000029ec
000000ed
fffffc33
00001464
000080d6
fffff38b
fffff954
ffffedb9
ffffd9ac
ffffdd95
ffffda30
ffffeb0f
fffff380
ffffd2f1
ffffcc9e
ffffd59d
00000429
00000167
fffffd2a
ffffffab
fffff27d
fffff5fb
fffff9b4
00000d4b
000017c7
00001de6
fffffd23
00001b05
0000134e
000002f9
fffff971
00001166
0000790a
ffffd97a
fffff3ec
fffffb64
ffffe837
fffff815
00000b08
ffffffbf
ffffec75
ffffe51e
ffffcaf5
ffffe00c
fffffa1c
00000efe
00000a25
fffffc9f
ffffea2c
ffffe876
ffffd82e
ffffe7e2
ffffe2c0
ffffe13a
ffffb679
ffffcce8
ffffdb77
000002b0
00000041
000017e6
00002086
fffff600
fffffa84
fffff9c9
ffffe211
ffffe623
ffffe287
fffff8eb
fffff011
ffffd628
ffffc870
fffffc0f
00001bc4
00000cff
0000010a
ffffef12
ffffd7a7
ffffc0c9
ffffc554
ffffbcd3
ffffbfa5
ffffd62b
fffff088
ffffd7b6
fffff025
00001a94
00004503
00003603
00001726
000021ea
fffffb1c
ffffec89
ffffd070
ffffd162
ffffd518
ffffdb6e
ffffbb05
ffffbcb3
ffffc8d1
00000e22
00002e00
fffff84b
ffffdb80
ffffd601
ffffcfc4
ffffc735
ffffca9b
ffffdcea
ffffca81
ffffc816
ffffd192
ffffc8f0
ffffe8f7
000011e0
00001812
0000548e
000011a9
000003d9
ffffffbf
ffffe752
ffffe56f
ffffcb60
ffffd438
ffffd156
ffffcc41
ffffe3d2
000005b1
00004481
000031d7
ffffdb5d
ffffd1b9
ffffbc04
ffffb5fc
ffffd594
ffffc682
ffffcd25
ffffc597
ffffc82a
ffffe34c
ffffbcd1
ffffefb2
00001b30
fffffd28
000022ab
000007fe
000001eb
fffff9c8
ffffdfc6
ffffe6d2
ffffad64
ffffb903
ffff9eac
ffffcef5
ffffeb7c
000023f1
00003a94
00000e2f
ffffe646
ffffc688
ffffbb1b
ffffbaec
ffffc938
ffffb55a
ffffbd30
ffffae5b
ffffc6c9
ffffea02
ffffdd32
ffffefd3
00000404
00000767
00001d8d
00001b1b
fffffa2f
00000fcf
00002224
fffff59a
ffffbeb0
ffff9bbe
ffffb493
ffffdd20
fffff9fa
00001868
000013c6
fffff15e
fffff7a1
ffffde57
ffffcf54
ffffc472
ffffa635
ffffbe36
ffffc444
ffff9929
ffffbf6b
ffffdea8
00000041
fffffab1
fffffe52
00000b40
00002d8a
00002b7a
000019a4
000015e0
00003361
000000c5
fffff29d
ffffe21d
ffffe366
00000102
00001d8a
00002149
00000aeb
fffff92c
000017e0
fffffe97
fffff45d
ffffdb17
ffffcc4e
ffffca31
ffffb86c
ffffa0d5
ffffd55f
ffffe02f
ffffd8f4
00001f75
fffff94a
fffffb43
00000701
00002223
ffffd271
00001e49
0000286f
fffff56e
ffffedcc
ffffdf80
fffff76e
0000274f
000020e3
0000300d
00000b8e
fffffed5
0000116b
000004cb
ffffde66
ffffbce1
ffff9f51
ffffae08
ffffa901
ffffb8f4
ffffbba5
fffff673
fffffabe
00002f2f
00000041
fffffed1
00000137
00003793
ffffe813
00001afd
000028c2
ffffe8c2
ffffe538
ffffe3db
fffff4c8
00001d80
00001ade
000011e1
00000777
ffffeeac
ffffefa4
ffffda6d
ffffc98f
ffff9596
ffff7f51
ffffb28d
ffffca5b
ffffc21c
ffffc4da
ffffceee
fffff3f5
000000fe
fffffeea
fffffd42
fffff746
0000031c
0000087e
ffffe545
fffff180
fffffb7e
00001e59
00004dec
00004bdf
00003dbc
00004d72
00003f21
00000f46
000002e2
00000297
00001555
ffffef32
ffffdcee
ffffb7b8
ffffd8e6
ffffe803
ffffdd7e
ffffe486
ffffe876
fffff717
fffffd00
0000081a
000004da
ffffff2f
000004f1
ffffd95b
ffffd747
ffffd507
ffffe51b
000031d1
00003609
00003cc1
000040e8
000034af
0000163c
000010f4
000002f2
00002708
000010f5
fffffa74
000025aa
00001ddf
00000d0f
00000152
00002a49
fffffcd2
00000825
00001d1d
fffffa2b
000003d0
fffff7b6
ffffff3f
000005d9
0000042f
000047b8
00003926
000034e0
00005610
000098dd
000014d1
000012d6
00000a97
00001278
00001b7a
00001c8e
00003242
00004413
00003024
00003263
0000339c
00001f50
00003219
fffff802
ffffff93
0000037b
fffffa95
0000042c
0000045b
00000573
fffff927
0000089d
000001cf
000000ec
fffff887
fffffb90
00000114
fffff814
fffffeb2
0000085c
00000750
000027b8
0000263b
000005e7
000000d1
0000082e
ffffffbf
fffffaed
fffff9e9
000002b3
000008c0
fffff6f9
fffff94a
0000031a
0000028d
fffff8c8
00000246
fffff8b7
ffffff07
000003ee
000001b2
fffffd68
fffff897
000039a2
0000330a
00002cda
00002a2e
0000454b
00002aca
00002bfb
00000cfc
00002306
fffffe9a
ffffdd99
00000a06
00007c04
00004d8d
000029c0
00004b9e
000072c6
00003c29
00000297
fffffc88
000004f5
fffff91b
fffffee0
fffff7e3
000014a6
fffffa59
0000229b
fffffa7d
00000329
0000323f
00003979
000022a5
00001913
00002e16
000032a3
00001d8d
0000072b
fffffa41
fffff81b
fffffbc0
fffff740
000020dc
00004102
00005246
00004434
00001e6c
000015c2
00005504
000007c2
fffffef5
000002be
fffff89e
fffff11b
fffffac7
ffffea6a
00008234
00003331
00004721
00006a32
000005b5
fffff889
fffff746
ffffff92
ffffffa3
0000131c
000016e8
00000bc1
00000a6e
000021bd
0000166e
00000f26
0000310e
00004aca
000035d2
fffff80e
ffffc93a
fffff84c
fffffa45
0000024e
00000592
ffffef03
fffffcf1
000010a8
00002829
00000041
00001848
fffffa67
ffffe2dc
ffffd407
ffffca9b
ffffd65e
fffffd61
000005b8
00001f55
000017a6
fffff645
ffffe109
ffffe63f
00000c05
000003f5
000013d0
00000573
ffffeb8d
ffffed19
000014ab
00005d88
fffff847
fffffc80
00003a1b
ffffd79d
00000349
ffffe566
0000164f
fffffa4c
ffffbf63
ffffc14d
ffffc7ed
ffffd8ee
fffff433
ffffef95
00000703
00000e13
ffffff1c
0000073b
fffffeea
000008ba
fffff4b4
ffffcaf9
ffffc9bd
ffffef99
00001618
00001cb1
00008ef7
000065fe
fffff90b
ffffd42c
0000280a
00000cb1
0000098a
00000507
00000735
ffffd5ae
ffffce47
ffffe816
fffffaa3
fffffae9
ffffe6f4
ffffe5d3
fffff584
ffffff3b
00000dc2
00000c74
fffff1b0
ffffee8a
0000004f
ffffca9e
ffffc8d1
fffff15d
00001551
00001b66
ffffea1f
00001873
fffffa03
ffffd68a
000004a8
00002920
fffff62b
00000626
ffffe9db
ffffd894
ffffebe6
00000a60
00000799
ffffed72
ffffdff3
fffff1aa
fffff81a
00001afc
00000b0d
00000266
fffffbb2
00000b70
ffffef6e
ffffece1
ffffe627
ffffec90
00000fb5
00000cac
ffffec56
fffff08a
000008a9
ffffb699
ffffb468
fffff7bf
ffffc7f8
ffffea03
fffff512
fffff91a
00000675
000009b1
fffff69b
ffffd786
ffffe2df
ffffff9d
fffffabe
00000c19
000006c7
00000161
ffffe970
fffff564
ffffffbf
000000c7
fffff91f
ffffd737
ffffd9ef
0000073c
fffff6fd
00002026
ffffcde1
ffffe82f
ffffcf27
ffffd980
ffffc44a
ffffe016
fffffad4
00001756
fffff430
ffffec38
ffffe981
ffffcc9c
ffffce8d
fffff241
fffffd91
00000465
fffff23a
fffffb73
fffff0c2
ffffef8f
00001643
ffffff78
fffff630
ffffdb70
ffff8cdb
ffff9bee
ffffb76e
00000a06
ffffd42b
ffffea47
ffffbe76
ffffc4d6
ffffb8e3
ffffd1e1
ffffe844
ffffee70
ffffe9e8
ffffe6cf
ffffda01
ffffdc1d
ffffdbaf
fffffcf2
fffff499
ffffeea1
ffffe0c8
ffffee0f
fffffa64
000015ef
00001e67
00000763
000010cb
fffff29a
ffffa748
ffff64a9
ffffa797
ffffee53
ffffd177
ffff9c77
ffffb660
ffffab8f
ffffbf21
ffffe367
ffffee73
fffff8e7
000003d3
fffffeff
ffffe942
ffffe8fa
fffffbd7
00001db8
00002f37
00000a56
ffffef13
00000d81
0000189e
000011c9
00001326
0000076b
fffff4ef
ffffe588
ffffd4f3
ffff9d9b
00000869
ffffc0b4
fffffd8f
fffff4ae
ffffd3e6
ffffb5e3
ffffb7d1
ffffec5d
ffffeeb8
00000462
fffff301
fffff374
ffffe6af
fffffccc
000013af
000035fc
00003f8d
00001b27
00001688
000029df
00002390
00000417
fffff5f2
00001857
00001069
00002e77
fffff581
ffffa327
ffffa1f3
ffffa968
fffff26d
fffff62f
ffffe10d
ffffb1ad
ffffc238
ffffee30
ffffe9f8
ffffec6d
fffffc18
000002bd
fffff71c
00000616
00001116
00003445
000033c9
000035fe
00003ac8
00001fd5
0000174d
00000851
fffff1bc
ffffef38
00000e40
fffff543
ffffb91c
ffff9416
ffff8c4a
ffffbc79
ffffdab1
fffffda8
ffffe636
ffffce8c
ffffcd43
ffffd98a
ffffd727
ffffdcdd
fffff42b
fffff714
fffff9be
00000a86
0000218a
00002d85
000025cf
00002593
00002262
000009e5
ffffdc6d
ffffe0dc
ffffcf26
ffffe086
ffffe078
ffffd99c
ffffb73f
ffffb5e9
ffffa674
ffffb33e
ffffd7d9
000006d6
0000081c
ffffc26b
ffffb3b3
ffffb4bc
ffffbb89
ffffd261
ffffe182
ffffed76
000006d0
00001667
000039f2
00003058
00002d81
000001ba
fffffec3
ffffcdec
ffffcdbe
ffffdabe
ffffe1bb
ffffe573
fffff438
ffffe88f
ffffcd0b
ffffd52f
ffffcd20
fffff269
fffffb95
000002f4
00000920
ffffb793
ffffb2c9
ffffb040
ffffc48a
ffffd518
fffff234
0000021e
00001ae5
000039d5
00003a7b
00002729
000005c4
fffff4e5
ffffefd9
ffffdda5
ffffe8d1
ffffee46
ffffed29
ffffea57
ffffe030
ffffd8e3
ffffc82b
ffffed12
ffffc5f1
ffffd36b
00000439
00000a6e
fffff676
ffffe0b7
ffffc6ed
ffffbf87
ffffb6b1
ffffd9bb
ffffeb62
fffff83a
000006e2
00000dd7
00000ad7
00000dec
fffffe64
ffffeed4
00000649
000011e5
fffffc11
fffffb41
fffff21e
fffff857
ffffccd1
ffffa90e
ffffa9b2
ffffc498
ffffd32b
ffffdf68
ffffe0bb
0000491e
ffffffbf
fffff5c0
ffffd6ae
ffffde40
ffffd011
ffffd766
ffffce81
ffffd27b
ffffd844
fffff13c
ffffe6c5
ffffe9ea
fffff0ff
fffffbc6
00002236
000015bc
00001b4c
00000a0c
fffff3ad
ffffd82c
ffffaa9c
ffff9840
ffffa9a9
ffffda93
ffffc65f
ffffebdd
000008c6
0000620d
00000373
000026bc
00000ae4
00000e08
ffffe519
ffffdcec
ffffd690
ffffc259
ffffc3e5
ffffcdf2
ffffc956
ffffc358
ffffd1f5
fffffd84
000026c2
0000271c
00003450
0000197b
ffffd6d6
ffffc6bc
ffffa122
ffffaf26
ffffbe5a
ffffc70e
ffffdec1
ffffe897
000005ce
000034e1
00001563
000031dd
000024de
00001e39
00001482
fffff471
ffffdcf8
ffffd291
ffffd301
ffffc9fd
ffffd24f
ffffe99b
00000aee
000005e4
00001375
000016cf
0000274e
fffff395
ffffde09
ffffb09c
ffff8c05
ffff9870
ffff8ba9
ffffddd2
ffffdc85
fffff890
000001ea
00000c9a
0000256b
00000f56
00000ed9
00001cc7
000021e1
fffff781
ffffe3e5
ffffdc3a
ffffed93
ffffef48
fffff655
0000051e
0000157d
00001955
00000d06
00001374
000004a6
fffff268
ffffcd23
ffff9a67
ffff8ef5
ffff9815
ffffc15c
00000309
ffffd5aa
fffffac5
0000043c
00003b8e
00001d26
000000c4
ffffea50
000017d1
00002170
000008d6
ffffe2bc
ffffe0bc
fffff343
fffff4d6
ffffed24
0000038e
00000d02
0000015d
00000e31
00001c94
00001104
fffff0ba
ffffb79f
ffff952f
ffff8422
ffffc14d
ffffc572
ffffbefd
ffffdd06
fffff9e1
fffffc83
000008aa
000024e5
000011cf
0000035f
0000158b
00001646
000010ec
fffffa2d
ffffe77b
fffff584
ffffe901
000005a5
00001a40
fffff6fc
fffff504
0000078c
00000bbc
00000c49
ffffd6e0
ffffa8ef
ffff8a55
ffff9dab
ffffba57
ffffe5d4
fffff9a4
ffffd593
000004fb
fffffc59
fffffe9c
00002e6c
000013f7
00000f5b
00002541
00002538
00005e0c
0000287f
00001c3c
000010b0
fffff3bd
0000052c
000003c7
ffffffa2
00000f02
00002fdc
000014fc
00000761
ffffd953
ffffaa4d
ffffa677
ffffc3a6
ffffcfff
ffffd404
ffffeb5a
ffffdf11
00000830
fffff94b
000006c1
fffffdae
ffffe385
fffff548
000014e7
0000274b
000038ca
0000414f
000025bb
00001857
fffff531
ffffea47
00000692
00000293
ffffdd6a
ffffffae
ffffff64
00001c36
00001654
ffffe063
ffffd9e4
000006e9
fffff9e9
ffffebfa
00001688
0000038d
fffffefd
00000880
fffff852
fffffb40
000027b8
00002d79
00003826
00006328
00003d20
00001357
00000ff3
0000174f
000005a4
00000f45
00001e70
000027aa
00001df6
000042c9
00003141
00002b6c
00000328
00002fd8
00000c8d
00000af8
0000072d
fffffa35
000008d5
fffffe0d
00000861
fffffe9e
0000021f
fffffe18
00000229
ffffcccb
ffffbceb
ffffbb97
ffffda2f
ffffc9b8
ffffe71b
ffffe68c
fffff763
000028bc
fffff58e
fffffdbb
ffffff70
000008bc
0000094a
0000311e
00002425
ffffe9af
fffff782
ffffdd5e
0000044a
ffffff7e
fffffd1b
0000061d
fffff727
fffffad1
fffff70b
fffffc8e
000007ec
000000d9
fffffb30
0000054f
fffffa71
fffffe1e
fffff793
0000035b
fffff75b
000006c5
0000033a
00000709
0000042d
fffffa04
fffff7ab
ffffff05
fffff89d
00000872
0000049c
fffffc64
fffff7a2
00000638
000008f5
fffffc8a
ffffff99
0000084d
fffff8ca
000007a0
00000490
00000100
00000080
ffffb491
ffffa524
ffffaf27
ffffb5fc
ffffd93c
ffffdc18
ffffe407
ffffdbe6
ffffdef9
ffffbd88
ffff9307
ffff966d
ffffb18c
ffff8484
ffffc24c
fffff740
fffffc90
000007a1
fffff6f4
fffffe78
fffffb36
00000800
0000023e
ffffffbf
00000041
ffffd047
ffffcf3c
fffffe11
ffffc20a
ffffc06e
ffffb0a2
ffffc168
ffffae42
ffffa988
ffffadf1
ffff9837
ffff974d
ffffaa97
ffffbb11
ffffda33
fffff6fa
ffff8cc7
ffff877e
ffff8a90
ffffb4f0
ffffb19a
ffffe85c
fffffdac
00000635
000006f8
fffffdc3
000007f1
00000444
ffffdf11
00000675
ffffd1bb
ffff945d
ffff8696
ffff51a8
ffff8eb7
ffffb8cb
ffffcfc2
ffff89ec
ffff6218
ffff7283
ffff6882
ffff982f
ffffd7e3
ffffc73d
ffffcc17
ffffa95a
ffffb1b4
ffffbdfb
ffff9c43
ffffd196
00000b4e
00000dab
fffffac4
0000062a
000003d2
fffffa36
000000f7
ffffcb75
ffffb78b
ffffc9d5
ffffb4ca
ffff9164
ffffa047
ffff9475
ffffdccc
ffffa8ad
ffff869f
ffff7550
ffffb915
ffffd98c
fffff97d
fffff1fa
000004e6
fffff2bf
ffffeb06
00000121
00001848
00002638
00000226
00000d1a
ffffc78b
fffffbf5
00000896
ffffdadd
00005acd
ffffac16
ffff9d12
ffffdcfc
ffffe0b3
fffff19c
00001809
00001017
fffff544
ffffd479
ffffc92f
ffffdd82
ffffe666
fffff010
ffffe463
ffffdcec
fffffd12
00001670
00000afd
0000332a
00001d7c
fffff5fd
00000099
0000066f
ffffe859
fffffe1c
00000256
00002fb4
0000448c
fffff7e9
00000d3a
ffffecbd
ffffe0f5
fffff0d3
0000158b
00000c91
fffff8ed
ffffefee
ffffc4b4
ffffee10
ffffdece
ffffeba1
fffff00b
ffffe802
fffff600
ffffcc85
00000b8b
00005a97
00003542
000006a2
00000c83
00003baa
000000ca
ffffff62
00003ea8
00002fb8
0000813c
00002f0d
000021e7
00000b88
0000020c
00000953
00002d92
000025fc
00000f30
fffffb37
ffffefd6
ffffc493
ffffd4a5
ffffe6be
00001757
000030bc
fffff8eb
ffffe97b
00000d63
00004f3b
00004e50
00004ec0
00001a6f
00004cc3
fffff279
00000708
00000dd2
00003b68
0000372a
00002a5b
00002d7b
fffffb49
00000b98
00001f4f
00003263
00000fdc
00001359
fffff47b
ffffe2a8
ffffd773
ffffcfb7
fffff73c
0000239c
00002924
00000e81
00001103
00002d8a
0000361d
00007047
0000788c
000046c8
ffffe753
ffffc53f
00003463
00002701
0000136e
00002658
000008f7
0000027d
fffff419
fffff010
fffffef2
0000139f
00000713
000006ff
00001456
ffffed36
ffffdfe0
fffff284
00001959
00001f95
00002f55
00000729
000010c3
fffffd24
0000107f
00001d4c
00002786
00003870
ffffed8e
ffffa473
00003a21
0000360c
00000709
00000fd8
0000055f
ffffdfbf
ffffdc83
fffff08d
0000005a
00001823
00001bcf
000020b2
00002f79
fffff721
ffffe844
0000192c
0000422e
00000ee0
00001843
ffffef3e
ffffe81a
ffffd99c
fffff600
ffffd861
ffffd452
0000377a
000058fa
00002509
0000398e
00003975
000032d7
00002655
000012a2
ffffc816
ffffe76c
00000d95
0000267c
000028ba
000039a6
000058c7
00003a75
ffffbb10
ffffae08
fffffa21
00002ced
000020bd
fffffd64
ffffd233
ffffc9e1
ffffd2aa
ffffd4bf
ffff9c2d
ffff77a7
00000261
00001f4a
00001955
000009c2
00002d16
00005191
00002e9a
fffffd44
fffface6
fffffb1c
000019a3
00003e2a
00002bb0
00005471
00006a01
00003239
ffffc3c4
ffff8c97
ffffec52
00002208
00002749
fffffb67
ffffe666
ffffd4d7
ffffc45f
ffffc0e4
ffff6bb7
ffff9dec
ffffe89a
ffffc103
ffffd728
000008d1
00002f9a
00004f8e
000025f3
00000645
fffffd06
00001ae7
000045b1
0000488d
000033b9
00004ad5
000042db
fffff355
ffffb057
ffffb0d2
ffffed9e
00002748
0000367b
00001624
ffffdec2
fffff54b
fffff335
ffffd614
ffffa6db
ffffc686
ffffc446
ffffa9a2
ffffda58
0000030f
00002260
00003cc0
00004a94
000058a6
000040c2
00003d2f
00005bbf
00004884
0000321c
00003efd
00002466
ffffeb86
ffffb2ab
ffffc9df
0000054c
000032e0
00004e89
00002657
00001603
0000058b
fffff4a2
00000c69
0000184b
00000fad
ffffdd44
ffffe8e5
ffffdb31
00001e0b
00003770
00005c74
00007c09
00006c0d
00003670
000047bc
00003e3c
00004776
00004049
00003ef0
0000134b
ffffdfef
ffffa53c
ffffc735
fffffee9
00002fc9
0000690e
0000467f
000026e3
0000121f
00001e83
00002c3d
00005011
ffffe521
ffffcaa3
00001170
fffffb94
0000272c
ffffffbf
000031b8
000059f3
00004231
00004764
0000334a
00002f29
00003871
00002de4
000020ec
fffff25f
ffffe9f6
ffffb8e5
ffffda44
00003bcd
00004377
000060f2
000066d8
00004fe8
000026e6
00002001
00001e96
000022f9
fffffc7f
ffffcb42
ffffd2e8
ffffde28
000003b8
fffff7cc
000025c3
00001f40
0000231c
00002c8a
0000234f
000024b3
00001e33
000000ba
fffff89b
ffffc3f1
ffffa0a2
ffffa9a5
fffff891
00004ad1
00005d1b
00005170
00006a47
0000298b
fffffc49
fffff152
ffffe480
ffffee78
fffff387
ffffd2b9
ffffcbb9
ffffe8b0
0000172a
fffffaaf
00003370
fffff741
00000e14
00001bef
fffffa11
00000706
fffff186
fffff5e9
ffffc3b4
ffff89ba
ffff81f6
ffffb19c
000008cd
000032ee
00002fb9
00001f96
0000070c
ffffdb18
ffffdf1c
ffffc8e0
ffff9d7b
ffffaf1f
ffffc4f2
ffff7adf
000006ee
00002e18
000005a7
00005cc1
0000052c
ffffdfae
00003959
000005ef
ffffd932
ffffc5ce
ffffc147
ffffaf08
ffff7963
ffff34a1
ffff249a
ffffbbdb
00000cea
00000b8b
ffffed1d
fffffbf3
ffffd18b
ffffb842
ffffb02b
ffffa628
ffff73a4
ffff753d
ffffb65a
ffffb330
fffff3f0
0000055e
fffffd51
000020ce
fffffac0
ffffc529
000008e4
ffffefd6
ffffd85f
ffffb398
ffff902e
ffff8a0e
ffff7ac6
ffff65e4
ffff705f
ffffdcd1
0000183e
fffffb82
00001b69
00001008
ffffe0f9
ffffab32
ffff9f6c
ffffc786
ffffb82a
ffff85d5
ffffcfe3
ffffda33
fffff943
00000ca3
00000041
ffffeb32
ffffe351
ffff89a9
ffffdfa2
ffffb0e6
ffff9b75
ffffb7e3
ffffb5ea
ffffabb8
ffff9cac
ffffa78b
ffffc407
fffff9ef
fffff158
fffff732
fffff750
000007ce
ffffe77b
ffffc870
ffffbb8b
fffff6cd
ffffd5e1
ffffc409
ffffe671
ffffceaf
ffffeba8
00000041
00000810
fffffae7
ffffcaa1
ffff8386
ffffc4df
ffff8f9f
ffff8fb9
ffffa52b
ffffcb79
ffffd77a
ffffddde
ffffe258
00000157
00001072
00000867
0000079d
00000a09
00001d20
000006c9
ffffea7b
ffffd2aa
0000162f
ffffea70
ffffbe09
ffffd075
ffffad03
fffff76a
00000816
fffff7bb
000001ad
ffffd615
ffffe746
ffffda7f
ffffb1b8
ffff9255
ffffa590
ffffd7a6
000022cf
00001473
fffffed2
0000105f
00001933
00001bcf
00001d49
0000285a
00002888
00000ef8
00000633
000018cc
00000b15
ffffd940
ffff98e8
ffff8834
ffffde9d
fffffe3b
fffffd6b
fffff757
fffffec0
ffffc33c
ffffd0f1
ffffca6c
ffffc3c9
ffffb638
ffffaadb
ffffb745
fffff989
00000d1c
fffffca6
ffffffa2
ffffffb6
ffffffbf
0000158f
00001ded
00001d5c
fffffd6d
fffff8f3
00000a16
00000960
fffff78b
ffffa01b
ffff9ef4
fffff101
fffffbc1
00000131
fffffcce
0000077f
ffffe6b6
ffffc83d
00001259
ffffd1d9
ffffc3fe
ffffbbbc
ffffb7c7
ffffcaf5
ffffda9e
ffffe4a5
ffffcf91
ffffdc3c
fffff7be
0000226e
fffffaf1
ffffe750
ffffec40
ffffb5f9
ffffd015
ffffe849
00001d9c
ffffc2af
ffffbe2b
ffffe4da
000006af
fffff7dd
fffff6f3
fffffe38
000002a1
000003cc
00001273
ffffba36
ffffa197
ffffb847
fffffba0
00000b33
ffffe342
ffffc3b1
ffffc096
ffffdbeb
ffffdb9d
000012ad
ffffcbe5
ffffa6ea
ffff9cff
ffff9eaa
ffff89a3
ffffbc04
ffffee1d
ffffe19e
ffffe943
0000038b
00000786
fffffe5c
00000398
fffff75f
00000567
fffffaac
00000cd5
00000ef9
00000041
fffff70e
00000e3d
fffff55a
000006e2
fffff90d
ffffe68c
ffffe6a9
ffffde4b
fffffa67
00000a79
000020a6
fffffcb5
fffffe08
00000368
00000dca
00002e51
000022eb
000006bb
00000614
0000062e
fffffc71
000005da
fffffe06
00000751
00000407
fffffaaa
00000651
fffff8d3
000007a4
fffffd85
fffffc35
fffff95c
00000421
ffffe067
00000810
000027ce
000015d8
fffff7e9
000006d3
fffffc46
fffffc1a
00000041
00000226
fffff862
00000517
fffff9d3
00000182
0000021c
00000464
fffff734
00000743
fffff765
fffff747
0000156a
000019ae
00004719
0000340f
00001c74
000022a7
00003df6
000012fb
0000096c
fffff6d3
ffffea00
ffffd7c8
000016f5
000047dd
00002b35
00000d38
ffffd632
ffffc33d
ffffa287
ffffe292
00000638
fffffea6
000003a0
fffffd82
00000666
000008b0
00000fdd
000019e5
fffffcf4
ffffcb69
000020a9
00000d0e
000056e3
0000a0ca
00006926
00008bfe
0000a783
00006953
00004b84
fffff9a9
ffffe592
ffffeeeb
ffffdf51
ffffda63
000008f0
00002331
000019a1
00000ae3
000038d4
00001a6d
000002a6
fffff7b0
0000023a
000002ae
ffffeddb
00000230
ffffe641
00006e19
00008b63
0000c43c
00007b77
00006bf8
00004f91
0000630f
0000671c
00002ae6
00002b92
fffffea5
0000016f
0000078b
ffffedb1
ffffff9b
00001fe1
00002eff
000033e6
00002fa5
000058b6
0000b6e1
00003226
0000036f
fffffec1
00000087
fffff974
fffffcfc
0000239d
000048e4
000035c0
00002463
00000c6d
00002965
00002a36
000002b4
fffff9ac
ffffe4a1
ffffef3d
ffffefcd
00000340
ffffd744
ffffd310
ffffe9e8
ffffe6c7
ffffe17e
00000404
00000200
ffffff14
00000333
ffffe019
fffffcf3
00000854
000002cc
00003dbd
000005c8
00006c3a
fffff47c
0000286f
00001876
00000b2d
0000171c
00000d0c
ffffdb91
ffffd078
ffffd316
ffffe943
000010a4
00002e53
00000d63
fffffc5f
00000356
ffffca5f
ffffbae9
ffffc686
ffffef56
00000ad3
0000077d
ffffff6d
fffff9b1
fffff90e
fffffcd0
00001e12
00006ca3
00007704
0000331c
00004524
0000289f
00000add
00000a37
0000182c
ffffe902
ffffcd1c
fffff093
00000287
00001747
00001455
ffffff06
ffffc6bd
ffffd9c5
ffffcc45
ffffbfff
ffffbe20
ffffcb72
ffffe418
00001848
0000062d
00000f27
fffffa48
000031d4
00001718
0000515b
000093a6
00007cb9
000050de
000016ef
fffffaf9
000019e4
000002ba
fffff4dc
ffffe3aa
fffff8ff
fffff5c7
ffffdfff
fffff707
00000773
ffffd008
ffffb9d8
ffffa08b
ffffa68d
ffffc09d
ffff9be7
ffffc0f5
fffffbcb
0000112a
00001747
00000515
00001dbe
00000074
000016c0
0000699a
000052e4
0000238b
00000418
fffff8d9
000024ac
0000104c
fffff5a6
ffffdade
ffffe183
ffffee5b
fffffc57
00001cfc
00001e25
ffffd5fa
ffffc014
ffffa787
ffff9e3e
ffffb46f
ffff8033
ffff7d80
ffffb341
ffffeb7c
00001348
000006ff
000007ad
00000796
fffffd70
00001efd
000003fb
ffffdc41
ffffe4c0
ffffdb00
fffff24f
ffffd5eb
ffffc31b
ffffa99c
ffffb1f4
ffffbf72
0000118f
00002659
0000004d
ffffc970
ffffb6f9
ffffc567
ffffbd26
ffffc84d
ffff9228
ffff9869
ffff9188
ffffe0b8
000009ec
000001b1
fffff5ff
00001aa6
ffffe433
ffffdace
ffffca7a
ffff97a6
ffff9f1e
ffff9dc5
ffff9a83
ffff8d27
ffff7a77
ffff833d
ffff99b3
ffffd1cf
00001a9f
0000149b
fffff9bc
ffffd292
ffffdd87
ffffe23d
ffffd168
ffffd4ea
ffffacdd
ffffa065
ffffc486
ffffe184
fffff26e
00000412
ffffe019
ffffeab4
ffffc56e
ffff93ca
ffff6f79
ffff6257
ffff6176
ffff5ffa
ffff5139
ffff6159
ffff87ed
ffffa2dd
ffffe6b8
00001b26
00000e51
fffffe1a
ffffc801
ffffaae4
ffffe8bd
ffffd90f
ffffdb79
ffffefb0
ffffcf3d
ffffc348
ffffebaf
ffffc8be
000013ae
fffffd2e
ffffd9c8
ffffd568
ffffaf65
ffff8c1f
ffff5553
ffff68b9
ffff6d5f
ffff66d6
ffff7bf1
ffffa6dd
ffffd2c4
00000d22
00003ada
00001261
fffffb63
fffff76d
ffffcfa2
ffffb06e
ffffd80e
fffff07b
00000746
fffff904
ffffe5de
0000263a
00004c52
00003381
000047ed
0000155f
ffffe15c
ffffd96b
fffff54a
ffffa3c1
ffffa3df
ffff9d7f
ffffa438
ffffa169
ffffe075
00001654
000042d6
000071a7
000048f9
00001600
fffffbe3
0000035d
ffffe7d9
ffffdcc0
fffffe6b
0000344d
00003aef
00001270
00002a2b
00007a83
00007e88
00006bf7
0000407e
000004dd
ffffe666
ffffe813
00003458
0000601f
0000165a
fffffb3c
fffff2c6
fffffde0
00003e50
0000565d
000072d2
000075ce
00003d23
000022c1
0000061b
00002689
00001389
00000787
00003873
0000407c
000047e7
00005b84
00005932
00005fad
000082dd
000057fd
000056ba
000008d0
ffffe877
00000e31
00008e22
000084b1
00006288
00005852
00004859
00003994
00004abf
0000316e
00004b80
00003c6f
00004df3
00003087
00003543
000037be
000031b0
00001637
00004275
00002908
00004c1f
00005340
00004285
0000623f
00006d9b
00005737
00003fbc
fffff9bd
ffffecf2
00000a16
0000a33f
00005eec
00005844
00006baa
00008e51
0000461b
000052eb
000021e9
00002fd0
000033b2
00003401
0000384f
000026d4
00002ffb
00002194
000015a4
0000428b
00001883
00002fc1
00003f1b
000033cc
000048c4
000045f4
00006f68
000025c7
fffff88d
fffffb23
00003c8a
0000788e
00005e75
000014ba
000034bd
00003638
000023f8
00001fa8
00001487
00000c04
0000093c
00001f77
00000b1a
000006b0
00003210
00002217
00000ff5
00000a33
00000419
00001c13
00002f2e
00001014
00003a4c
0000414b
00004bf5
fffffb50
00003127
00002398
00005668
00005960
00000dfb
ffffc9dd
fffff7ee
000006b0
fffff974
fffff7d5
ffffefeb
fffff73f
000028e8
00000b01
ffffd86e
ffffe6e1
00004013
00002ff9
00001861
ffffff8f
00000d44
000007d2
00000cbd
00001ac6
00002c46
000077ad
00004dec
00005492
ffffe785
000006ff
000018a9
00002bb0
00000def
ffffd09a
ffffd0c6
000002fc
ffffeb3f
ffffdcba
ffffe943
fffff264
00000041
ffffea60
fffffbcb
000017aa
0000499d
00002dc2
0000144a
fffff07c
fffff740
fffffcb6
0000073b
fffff05f
fffff23f
000026c8
00005332
00003fef
00000709
ffffc1f2
0000177a
00003e12
fffffe2c
ffffdae1
ffffca95
ffffe299
000005e0
fffffbdc
ffffd47d
ffffeb37
fffffd4c
ffffd986
ffffe70e
00000bd8
00001e1f
00001a68
00001afa
fffff32e
fffff986
fffff627
ffffe6cb
ffffe662
ffffd9f1
fffff111
000048c0
fffffa78
ffffe330
fffff50b
000042bd
00004342
fffff7a2
ffffefc5
ffffdf06
ffffeb91
fffff724
fffff698
ffffd0e7
ffffdb2e
ffffdf6d
ffffd724
ffffd26c
fffff63c
fffff1f0
00000590
0000119a
00000c9f
ffffed38
ffffd3d7
ffffca8c
ffffc156
ffff9713
ffffced1
000033da
fffff9ad
ffffe3b0
00000573
00004612
00002f08
00000a10
0000096b
fffff87e
ffffde89
ffffeb1d
fffffb26
00000224
ffffe7fd
ffffc4b6
ffffceaf
ffffe7cb
ffffee52
fffff034
ffffe1f3
00000177
00002289
000008b4
ffffd263
ffffcdb4
ffffb5f1
ffffbe21
fffff3fc
ffffe949
00000454
fffffc9b
0000005d
00002515
fffffe6f
000012a3
ffffe783
fffffdeb
00002325
fffff2af
fffffdbb
fffffa48
fffff4b6
ffffe165
ffffdeb7
ffffe738
fffff346
ffffd0d2
ffffe36f
00001cac
0000171b
fffff61c
ffffbffd
ffffc871
ffffd122
ffffaba1
ffffbd97
ffffe648
fffffbc7
fffff7da
00000554
000032bd
ffffe150
000022fe
00000209
ffffea43
00001b4a
000035d5
00002450
00000d32
00000e15
00001126
000005e9
000002a8
ffffe092
ffffedbe
fffff98d
fffffebb
ffffc3f4
ffffe32a
ffffdc31
ffffd59c
ffffe8d5
00000d60
fffff80a
000004b7
fffff86a
000005e2
fffffab6
000005c1
fffff11a
fffffb7f
ffffecb8
ffffdc4e
fffff019
00001f01
00000e08
000012ad
0000339d
fffff6c7
ffffd1b0
ffffc88e
ffffc6e8
ffffb87f
ffffab9e
ffff7deb
ffffa2ef
ffffc305
ffffa54e
ffffbeb4
fffff44a
ffffee72
ffffe629
fffff77f
fffffce4
0000067f
00000621
fffffa07
00000543
ffffeb1c
ffffec6b
ffffa954
ffffa55c
ffff90ce
ffff7d37
ffff96fb
ffffd59b
ffff77af
ffff8d9b
ffff7657
ffff7f37
ffff9d00
ffffd52a
ffff9ea3
ffff7545
ffff88ab
ffffbfb5
ffffdda4
ffffd2f1
ffffffa2
fffff6ff
fffff899
fffff7fa
ffffff98
fffffdbc
fffffac1
00000876
ffffffbf
000003a4
ffffd0e9
ffffd25c
ffffce77
ffffc5c4
ffffdf75
ffffdd98
fffff683
ffffc889
ffffc080
fffff222
ffffedd3
fffff454
fffffa34
fffffd7d
fffff858
000004ce
fffff7d3
000001ce
fffffc6c
fffffd6f
fffffd4b
00000584
000002bf
fffffbe3
fffff8c0
fffffc3b
000003c4
00000414
000007b3
000003de
fffffd68
00000278
00000081
000007f1
00002548
00002c85
00002a86
00002731
00000215
00000163
fffffda6
fffffb3c
fffff76d
fffff93e
000002d1
00000534
00000041
000003d3
0000074b
0000005a
fffffda1
000001ec
ffffff07
fffffdd6
fffff9d2
fffff9a8
00000646
ffffe9d5
fffff972
fffff005
fffff315
000044c0
00002f86
00002950
00002143
00005f14
0000601c
00005280
00002ce4
ffffe4ec
fffff145
ffffee84
000003ed
fffffcab
fffffcc1
fffff927
fffff87d
0000039a
fffffa06
00000313
fffffbf3
00000842
0000022a
00003455
000026b9
00000f11
00000a5f
00001d27
000007b0
0000265a
000029b1
00002f60
000039a2
00000a35
00000170
fffff092
ffffe8d2
ffffbbb4
ffffd61e
ffffea99
ffffd4a3
000019d6
000017ae
fffff719
fffffeb2
fffffe4d
00000181
0000049b
fffffb60
00000ba1
00001ffa
ffffdca1
0000147a
0000100a
fffffa7a
0000199f
0000223a
00002430
000011a7
00001d18
000025ed
00002d2b
00004885
00003a36
00002c6a
ffffee4d
ffffd38d
ffffc29b
ffffc52b
ffffae46
ffffbdee
ffffe2e5
fffff2b3
0000028e
0000070a
fffffc85
ffffe6bc
00000821
00005060
ffffe64c
000048de
000036c6
00001140
0000274a
00002711
000020e1
0000276c
000032d9
00002678
000012f3
00002503
00002b49
0000551f
000069d6
00003a9e
fffffeae
ffffcf24
ffffbf56
ffffc04b
ffff9dbe
ffffb5a8
ffffcd18
000000c8
fffffdc7
000049ca
fffff2d3
fffff265
ffffea7c
00001388
000024c4
00001c51
0000203a
00003395
000047e8
00002f73
000031fc
00001e3e
000011a3
00000470
00001300
000019d3
00002c89
00001495
00003873
ffffface
ffffc52f
ffffaa87
ffffa09f
ffff9a47
ffffc838
000008da
00002b34
fffff88c
ffffc4a1
ffffe785
ffffcc17
ffffe23d
000008ef
000001ff
0000066a
00001109
0000197e
00003542
00003efb
00004247
00002ce1
000017f1
00000a96
00000eb4
00000be3
fffffb16
00000051
00000084
ffffac25
ffff71e9
ffffa789
ffffdd3e
ffffebda
fffff89e
00005662
0000017a
ffffed22
ffffd80f
ffffcef8
ffffc3a5
ffffe260
fffff287
fffff024
000005e5
0000317e
00003893
000034ff
00002e3d
00002a73
000035a3
00001c5c
00000b42
000010d5
000006f2
000014bc
000010e9
ffffbe94
ffff6fbe
ffffabc7
ffffe768
fffff601
000002ed
000037fa
ffffebad
ffffda1d
fffff20c
ffffd09d
ffffbbf3
fffff10b
0000058c
fffffd18
0000168b
00002805
000015e0
ffffe874
ffffecc8
000007d0
000035de
000035fd
0000272a
00002ad0
0000031e
ffffe80e
fffff9ae
ffffd3b6
ffff8ac8
ffffab6f
fffff336
ffffec1e
0000024c
000024d2
ffffe306
fffff248
00002d3c
ffffe3bb
ffffb8d8
ffffec46
fffff24c
00000d3a
00000dc0
fffff706
ffffdb2c
ffff90d5
ffff7607
ffffd2e4
00003f6a
00004fd2
0000357c
000020a9
ffffe853
ffffe831
fffffc28
0000096d
ffffb74d
ffffa671
ffffd7c2
fffff768
fffffed8
0000335f
000013dd
00001a50
0000251f
00002509
ffffd709
ffffd767
fffff027
ffffea62
ffffd922
ffffbd25
ffffaf42
ffff6e5d
ffff49be
ffffbd0c
00004890
00004b2c
00002837
00000456
ffffbebe
ffffdce0
00000e55
00001555
ffffd0c6
ffffb35b
ffffdca9
000015c8
fffff8bb
00001a6a
000054f7
fffff223
00000c99
fffffaad
ffffce0a
ffffa8f0
ffffba08
ffffb704
ffffbe88
ffffb871
ffff9a22
ffff6b69
ffff6479
ffffd389
00001bd4
0000187b
00000433
ffffead4
ffffd44a
ffffe2a0
0000022e
00000a9d
ffffe854
ffffd2ff
ffffea26
ffffe73e
000000bb
00001fe6
00003825
00000a39
00002b4e
ffffe43f
ffff9ed8
ffff8a85
ffff9829
ffff9e08
ffff9e57
ffff8670
ffff8e80
ffff89ee
ffffa569
ffffe6a1
ffffee0a
fffffe84
ffffdf3c
ffffd1e1
ffffd884
ffffe1b0
ffffc3f9
ffffe918
000021f7
00001541
ffffe06e
ffffbc9a
0000033c
fffffb3d
00003d95
00000d50
00001cf8
ffffae85
ffffaceb
ffff855e
ffff62a7
ffff5fe2
ffff76c5
ffff82b2
ffffd399
ffffc549
ffffdae2
ffffef65
fffff247
ffffefed
ffffd9d9
ffffc706
ffffcda5
ffffeb0e
ffffb260
ffffee1d
00004b6c
00004d2f
00004230
0000124d
fffffa21
ffffe68d
00001c2e
00004a74
ffffdb4d
ffff796c
ffff9e30
ffff88f3
ffff78f1
ffff9169
ffffc143
ffffdf88
ffffe9f6
ffffdf09
ffffe982
ffffdec7
ffffdbf6
ffffd584
ffffe687
ffffc417
ffffc374
ffffa076
ffff9bbf
ffffe169
00001388
000014e0
0000289b
0000266a
fffffbd8
ffffeb12
000031d9
ffffd4ef
ffffa5a0
ffff81d5
ffff8d41
ffff9841
ffffdf28
0000052d
000009cb
00001f38
000001cb
00000209
ffffec8a
ffffd2f8
ffffe3b5
ffffe102
ffffbfec
ffffb621
ffff86d0
ffff7dc0
ffff83c0
fffff2b6
00001ade
00001620
00004d20
00001e28
fffff946
ffffec1a
000041f9
ffffab31
ffff9389
ffffa43f
ffffc3a9
ffffe857
000010ef
00002566
00003a2d
000016a1
000016fe
000019f1
ffffe7a7
ffffd880
ffffd5b5
ffffb9ea
ffff7560
ffffa50f
ffff8935
ffff95a3
ffffc581
00001be6
0000389f
00002535
0000670b
0000119f
fffffdec
ffffe979
00001100
ffffaf61
ffffab86
ffffce4b
fffff2ea
00001027
00002de7
00001de4
00002bf6
0000376c
00003727
00002662
fffff571
ffffd8d4
ffffc492
ffff880e
ffff7544
ffffaa7e
ffff9eeb
ffffc0a7
fffffdba
0000189c
00001eea
00001ab5
00003f83
0000163f
fffff1aa
fffff7e3
ffffd8cc
ffffc657
ffffd3c7
ffffe3bf
fffff374
00003c76
00003bfa
000039c7
00005630
00003d89
0000624c
00003729
ffffea42
ffffaea2
ffff9a25
ffffacf0
ffffbc03
ffffc03c
ffffc1e2
ffffc9a5
000006c8
00002894
0000208e
000046f7
00005ad2
00004314
ffffdfe2
ffffd685
00000b27
fffff980
fffff93b
fffffdab
00003855
0000439e
00003ee9
00004ecb
00005cb2
00008429
000092e6
0000656f
ffffeee1
ffffbc4a
ffffca85
ffffe125
000015a1
00002154
0000298a
0000155a
0000273a
0000403f
00003223
00005c2b
000042e2
00004787
fffffc27
ffffea07
0000130f
00003725
00004426
00002d6e
00003e89
00002d5d
0000444c
00003974
000053c3
00007a9c
00008068
0000515d
00000ade
fffff4a2
00001800
00003570
00003da7
00006dea
000054f5
00003c19
00003d9a
0000546f
00004c0f
00005e65
00003fcd
00000124
00001465
ffffe8a4
000001ba
00000bf1
00003d50
0000424e
00003a04
000026ef
00002e7d
00003a77
000039a9
0000315e
00001c38
fffff086
ffffe6db
fffff6ce
0000066f
00002f79
0000649b
00006214
00005c0d
00005a5f
0000589d
000052ee
00005ff2
00007802
0000872c
0000035b
000012fa
00000c80
00000414
fffff993
00003053
000053df
0000365f
00001ce8
00002308
00002c23
000017e4
fffff6c0
ffffde2b
ffffdde4
fffff90f
ffffe848
fffffe96
00001acd
00003b40
00005d38
00006159
000067a0
00005129
00002a7d
00004947
0000bb6c
00002c11
fffffd39
000001f0
00000107
fffffd63
ffffb4d4
ffffd1de
00000be2
ffffda35
00000274
fffffe75
fffff4f0
ffffeaed
fffff86c
ffffe53d
ffffe698
ffffdd3a
ffffde8c
ffffd5e3
ffffd88d
0000147d
0000255b
00002aa0
00004fce
00007531
000047d6
00003894
000045d5
00000cec
00000238
fffffdea
00000640
000014bf
ffffae04
ffffde7f
ffffb71e
ffff8bf5
ffff8ff2
ffffc029
ffffc4c4
ffffc021
fffffb02
0000220b
00001163
fffffe3d
ffffc0a4
ffffb4e4
ffffe193
00000182
00001882
000005cf
00000c55
0000098e
00000041
0000206f
00002472
00002a29
fffff99c
fffff9b0
000007be
fffff8e7
fffff1d8
ffffd9b3
fffffa53
ffffe888
ffffe62c
ffffcb61
ffffc11b
ffffd4ec
ffffca64
ffffe2e4
ffffecb5
fffff38f
ffffd677
ffffb4cf
ffffccad
ffffaece
ffffc784
00001926
00003229
ffffff4e
fffff55c
fffff7a4
00003302
0000354e
fffff96a
fffffd59
00000375
fffffe14
000003a8
00001de7
00000b52
fffffdd8
00001168
0000027b
ffffffb1
ffffeeb0
ffffc61b
ffffc3a0
0000036f
fffff616
ffffe176
ffffaa8c
ffffc68f
ffffafae
ffffeb9d
fffff1ba
00001348
ffffe8e6
fffff976
fffff765
fffff99e
fffff7d6
fffff8c6
0000065d
00000221
fffffdf0
00000278
000009a3
000006a2
00001320
0000131d
00000674
fffff83a
ffffee63
fffff741
0000126b
00001549
0000146b
00000fe0
000010f9
0000120f
00000648
00001328
00000172
00000216
fffffd73
fffffa67
000007d0
0000077d
000001f0
fffffa75
000004a5
fffffc12
fffff728
fffffde3
ffffffb1
0000016f
ffffffbf
fffff8f5
00000105
fffff8f9
000001a9
fffffce6
000004bc
0000087b
000006d4
fffff6df
000000c8
000000bc
00000827
00000730
0000052f
fffffd79
00000556
000006f7
fffffaa6
fffff6e9
fffff9f9
fffff887
fffffc83
fffffcab
ffffff6e
fffff92f
000003df
00000166
ffffd7a6
ffffd166
ffffebd0
0000039b
ffffeaa1
ffffec5d
ffffecb2
fffff628
ffffec69
fffff4bd
00000190
fffff8ff
00000652
00000152
fffff9db
fffffe9d
000003f7
fffff87e
fffffbac
000008ae
0000054a
0000067d
00000918
000003a6
fffffbf2
000001d6
000003c9
000008e7
fffff0b1
ffffef8f
fffff07d
ffffcf0c
ffffdf79
fffff06b
fffffad8
ffffd160
ffffd4ce
fffffd17
00000b5f
fffff83d
ffffe8a4
fffff5a0
fffff662
ffffe002
ffffe622
ffffee98
ffffdfff
00000167
00000455
00000075
0000073e
fffffc34
fffff8cb
fffffa14
fffffca3
fffffda3
fffff6c3
ffffe2ac
ffffd06a
ffffe98f
ffffe771
00000a68
ffffd03b
ffff99de
ffffa907
fffff97a
fffffc52
ffffe7a9
ffffdcd6
ffffe5fa
ffffe711
00001f0e
00004dd1
00002697
00000a26
00002c2e
0000048a
00000140
00000352
fffff91a
fffff738
000000d5
fffff672
fffffeeb
ffffcac1
ffffd101
ffffb39c
ffffb639
ffffbecd
ffffc292
ffffbf85
ffffa4f0
ffffb4ce
ffffeb91
ffffdf1b
ffffcd48
ffffcf21
ffffd867
ffffecbd
00000d70
0000132f
fffffb90
00000fe4
0000251f
0000296d
000005ad
fffffb67
fffffa30
fffff832
fffff5bc
ffffc056
ffffbc6c
ffffbdd3
ffffb43a
ffffcf0a
ffffce68
ffffb168
ffffbffa
ffffec1f
ffffc6e6
ffffba61
ffffb131
ffffae3c
ffffa8fa
ffffbd44
ffffd0dc
00000065
ffffe1b7
fffff2ce
ffffe6c7
ffffeea1
000019a9
00002239
000013e8
fffffd05
fffffbcf
000031a3
000033a3
00001378
00001aef
ffffe124
ffffd4f9
ffffd2d3
ffffe32c
ffffdb9b
fffff306
ffffcfe4
ffffa64e
ffffa7a7
ffff9b46
ffffb107
ffffdc29
00000d09
000016aa
00000436
fffffa24
00000a4b
00000cac
fffffaaa
000004cf
00002ebd
00001ef3
00000e5b
00003d3c
00004d32
000086f1
00003db3
00003398
00004505
0000067b
ffffdb1b
fffff04c
fffff10b
ffffe510
ffffbdfb
ffff9217
ffff9481
ffffaa21
ffffcc3d
ffffec36
0000230d
00001035
fffffeea
ffffe86e
00001550
0000208d
00004085
00000eea
00000a50
ffffee2a
00000d80
000041e8
000074f2
00009537
000035d6
00000df6
00002646
000037f5
fffff069
fffffead
fffffca0
fffffda7
ffffdfec
ffffbfae
ffffc5e0
ffffc926
ffffdc60
00000b9d
00002481
fffffe1c
ffffddac
ffffeb8f
0000212c
0000561d
0000720b
000055bf
fffffbcb
ffffc740
0000351d
00002c7f
000048d2
000063f3
00000836
00002166
00004a68
00001b94
fffffe52
0000201b
00002c5c
00003d55
00003908
ffffff1f
ffffed1c
ffffcb50
ffffed14
00000ef1
00003463
00000cba
fffffd46
00000935
00001a5f
00004e16
00004d5b
00009fab
fffff07e
ffffc468
00004225
00003c98
00002957
00004967
00000c5b
000057a6
000038e8
000018b5
00001667
00004bcb
0000712c
0000703e
00004ff8
000017a5
ffffcba9
ffffd01e
ffffeb68
000016bb
00003aa1
00001b4d
000021b4
00000ffc
000039ba
ffffffbf
000006e2
000073ca
00001d22
ffffea7d
00003f9d
00003c7e
000046c6
00005714
00006aec
000064bd
00002220
00001187
000017a3
00006226
00006f44
000065a1
00002a4f
ffffdd65
ffffa963
ffffa9f2
ffffd4cf
000020ab
00004863
000018d6
00000bf9
0000082c
fffff0fb
ffffd987
ffffc6c1
000022a8
000040ad
ffffdfde
00000c23
00003c22
00002f60
00005024
00004274
00005870
00002ede
00001e7a
0000238a
00004de0
000056ec
00002869
ffffd027
ffffa24a
ffff7ec9
ffffbc08
fffff3de
00002bc9
00003780
00000442
fffff6e5
ffffe778
ffffe1d2
ffff9937
ffff4b15
ffffd8cc
00000c79
ffffd8ff
fffff898
00000fc9
00002dab
00001864
0000140c
000069e4
000043a1
0000158c
000031e9
0000304e
00004505
fffff622
ffffa316
ffff758b
ffff7ca5
ffffa88c
fffff5bd
000017ce
0000148f
fffff054
ffffd953
ffffeac2
ffffca8c
ffffaa3c
ffff8210
ffffbb94
fffffe8e
ffffe7f3
fffffe79
00000976
00002853
0000028c
000023c5
000077f3
00003221
00003093
00001e06
00002e08
00000be2
ffffb7c6
ffff7e36
ffff84ab
ffffa087
ffffdba6
ffffeb0a
ffffffb0
0000108b
00001464
ffffdc3c
ffffc3ab
ffffddc2
000001af
ffffc53c
ffffacba
ffffee89
fffffc02
000015bb
000033e0
00005ffb
0000208e
00001759
000017fa
000029a8
00003f5a
000012ab
ffffff85
ffffe00b
ffff9b30
ffff664a
ffff8087
ffffb530
ffffeac1
ffffe106
ffffff3a
00001668
00001e19
fffffb4b
ffffff68
00001098
000017d0
ffffed23
ffffd14d
00000a9f
00000115
000018c5
000002de
0000157e
fffff4e2
fffff7b0
ffffea1d
000027c8
00004208
fffff5cf
ffffb810
ffffa305
ffff6891
ffff73f7
ffffa6fb
ffffd797
00000246
fffff645
0000109e
000027fb
0000381d
fffff27a
000007f7
000019aa
000024ec
00000ee3
ffffe151
0000229f
fffffd5a
000004f0
fffffd3f
00000660
000000b5
00001e60
ffffd5e9
fffff44d
ffffff86
ffffba82
ffff7991
ffff5dbe
ffff80a9
ffffa98a
ffffdd12
00000a5d
00001e53
00000e02
0000262b
00003b3e
0000174f
fffff345
000006cf
0000382f
000027d3
00002363
00000c41
00002f00
000000c1
000035de
000007b4
00001a0b
ffffeeaa
00001db9
fffffa05
ffffc7cb
ffffadc0
ffff99bd
ffff7e77
ffff707d
ffff8f62
ffffb274
ffffe85a
00000ca0
fffff6a5
fffffd5e
000023df
00001cfd
fffff805
fffffd7f
ffffeeff
fffff53f
ffffca4b
000032d1
00000dbb
fffff533
000005ce
fffffc05
00000be2
000036f6
ffffe2c6
000040a3
00000b82
ffffb93a
ffff953e
ffffa940
ffffb465
ffffb177
ffffc2dd
ffffc04f
ffffdaac
ffffcc30
ffffda96
ffffed88
ffffffbf
ffffee53
fffffe30
ffffcbd2
ffffaef1
ffff8f2c
ffff84ca
ffffe2ff
fffffb56
fffff5c8
000006c9
fffffeb2
00000f9b
00000a85
ffffa6d9
ffffdf53
ffffde84
ffffbc95
ffffa8c8
ffffb596
ffffc56a
ffffe254
ffffc5fb
ffffc04f
ffffb9d2
ffffc919
ffffcdd9
ffffe1ec
00000488
ffffe7de
ffffe85d
ffffb58c
ffff8a03
ffff99d7
ffffbd4e
ffffce0b
fffff60f
ffffe827
00000b73
000001f0
00000587
fffff19e
ffffa555
ffffca73
ffffb883
ffff9ea1
ffffa10d
ffffe4c4
fffff7ad
ffffedcc
ffffdf5f
ffffb468
ffffc976
ffffc340
ffffda47
ffffe933
fffffc23
00001096
00000964
ffffd6f3
ffffb4eb
ffffd952
ffffe44a
ffffe3fb
fffff5b2
ffffe8d4
000007a4
0000049e
0000087c
ffffe7fc
ffff9060
ffffbba4
ffffa22f
ffff9ee7
ffffe1c7
0000118b
000016bd
ffffea18
ffffc1a5
ffffa742
ffffdbbc
fffff2d3
0000181d
00000a1b
00002ddb
00003cd9
000027c6
fffff197
ffffb6f3
ffffdba1
ffffa633
ffffb71f
fffff2fc
00000c56
fffff75e
fffffdb3
00000705
000005b9
ffffff4a
fffff4ea
fffff4d5
00001f94
0000493a
00003c7c
00002993
fffffb60
ffffca04
ffffd375
ffffdd7d
0000143c
00001187
00001b5f
00002064
000042ff
000056a5
000015ee
ffffd569
ffffc1ea
ffffb489
ffffb88b
ffffe083
00001b36
fffffb9a
000004ff
fffffae0
ffffee41
000009fb
00000925
00004ab4
00006950
00007209
00004cb4
000016d0
0000052a
ffffef03
ffffff5f
00001048
0000111c
00001616
000017e6
000028e3
00003b17
000045a0
0000184a
ffffd85c
ffffe87f
ffffc0ef
ffffcac9
ffffc483
000001ee
ffffffbf
ffffff43
fffffb9b
ffffd817
ffffdff2
00001b19
00003b1b
00006f39
00006156
0000365b
00000fd4
ffffdaba
000008f2
00001bcf
0000215a
00002933
000039a3
0000182b
00001935
00001b8a
00001009
ffffd026
ffffe731
ffffe770
fffff76e
00005a1f
ffffe4f0
000006ed
fffffdfc
000002d1
fffffcf3
ffffff2e
fffff8aa
00002991
00000d65
fffffb06
ffffec16
ffffcf1b
fffff46c
ffffc68b
ffffddd6
fffffd3b
00000ca8
ffffff03
00003b1d
fffffd8c
ffffe684
000002de
0000166f
ffffcf13
ffffd12c
00001c16
fffffc12
ffffe0c1
00002575
00000921
000007dc
fffffb6f
fffff9c3
fffffc13
fffffb0a
00004418
00003e4b
00004114
000001f3
00001077
00003a5f
00002167
00001316
000006da
000019f0
0000243c
0000278f
00002aba
00004ef3
fffff09a
00002841
00001037
000010d4
00004050
00003536
fffff6ff
fffffb58
ffffffbf
000007f4
fffff8b1
fffffd29
000000d5
fffff9c8
fffff7ef
fffffb55
00000739
fffff7a5
fffff805
fffffc8e
fffff7c3
00000921
00000545
000003dd
ffffffbf
fffffef6
0000038d
000005b2
ffffffbf
000000ee
fffffa05
fffff92c
fffff967
fffff7c9
0000074c
00000738
ffffff32
00000041
000008a7
0000048b
fffffc11
fffffa5f
fffff87d
fffff7cb
fffff755
00000248
fffffa09
00000859
0000008d
fffff891
fffff705
000006e5
ffffad19
ffff950c
ffffd508
ffffec10
00000087
000001bf
ffffd6c0
ffffcf5c
ffffd9a6
00000455
00000653
000006dd
fffffcb5
fffff743
000002c1
00000234
fffffd7f
00000852
ffffff7b
fffffd32
000001d9
000006f1
0000014d
00000190
00000ead
00002712
00001999
ffffca26
ffffb495
ffffd2eb
ffffd435
ffffc794
ffffc2f2
ffffca77
ffffed49
00001104
ffffdc81
ffffef97
fffff4f0
00000217
00000788
ffffffa5
000008b1
00000384
000001da
00000365
fffff7bc
000005c1
ffffff9b
fffffdf6
fffff87a
ffffece0
fffff369
ffffd2ed
ffff9ddd
ffff77f2
ffff74b4
ffff91e7
ffff9312
ffffabdf
ffffe002
000033ee
00001dbf
ffffce9a
ffffcfd4
ffffbdf7
ffffe952
ffffda8f
ffffd86a
0000088a
fffff853
fffff726
fffffb84
fffff89f
00001aea
ffffebdf
00001023
fffff47a
ffffffa3
ffffff8b
ffffe56e
ffffcaad
ffffb10c
ffff88df
ffff8865
ffffaaad
ffffe4c6
ffffc805
ffffe9c9
00003490
00001f66
ffffe430
ffffd842
ffffddff
ffffda2e
ffff7983
ffff8fad
ffff92f0
0000036c
000001e3
00003ac7
00002f97
fffff38d
ffffd280
ffffc666
00000103
fffff825
00002423
0000015b
ffffe79b
ffffede9
ffff9f8c
ffff7520
ffff76a0
ffffa68d
ffffbb28
ffffbf6b
ffffcab8
ffffd084
0000033d
000011e3
ffffdaeb
ffffda79
ffff774c
ffff8cc6
ffffcda6
00000346
fffffe38
00002e19
0000223a
fffff23e
ffffbd1d
ffffa8ee
ffffc237
ffffe10a
00002153
00002b30
00001867
000034a2
ffffe68f
ffffad32
ffff97f4
ffffd547
fffffed8
000005ba
ffffebc7
fffffa24
fffffa35
fffffb71
ffffed10
ffffd857
ffffd264
000017b6
00002357
fffff805
00001d1c
000013e6
ffffd96d
00000ada
ffff8bcd
ffff8f2e
ffffa32e
ffffbaed
fffffaea
000001c8
00002a6f
000021a6
ffffe6be
ffffb975
ffffc389
000013ea
00005aea
000033f2
00001510
00001bc4
ffffff0a
0000055a
00001277
ffffe729
ffffcea6
00001f25
00002a8b
000000d7
0000231c
00001ca6
ffffe3d7
ffffac29
ffff767e
ffff7960
ffffbbdb
ffffaed4
ffffc010
ffffef5c
00001120
ffffca74
ffff8cad
ffff8c88
ffffc505
0000175e
00007710
000044a4
000033e1
00002110
fffffe87
0000144a
fffff266
ffffc02b
ffffe0d7
ffffe2c3
fffff92f
fffff92f
00002168
000006ab
0000225c
ffffd0f6
ffff946e
ffffce42
ffffe40d
ffffd52c
ffffec6e
000005f0
ffffe121
ffff7cca
ffff582b
ffff7d2a
fffffd33
000070a7
000075a6
00004496
00001371
ffffefed
fffff73a
00000c3e
ffffd4bc
ffffcc91
ffffdcc9
00000da0
0000261f
fffff867
00003b2c
fffffb28
ffffeee1
ffffdc06
ffffa661
ffffb8be
ffffbff2
ffffd57e
00000c80
0000041f
ffffaf56
ffff73cd
ffff5c5c
ffffbc9e
00004db8
0000920f
00006c03
000030ba
000010c3
0000129a
0000226c
fffffe34
ffff7c93
ffffa764
00002b8b
ffffd836
00001223
fffff862
00002164
00003454
00001942
ffffee5d
ffffd9b2
ffffb379
ffffc9fd
ffffef31
000021ad
00000073
ffffa227
ffff858b
ffffa09a
000017ea
000073a3
00007da4
000047d0
000038a3
000010a6
0000030a
ffffd993
ffffa351
ffffae3e
ffffdcad
00000069
ffffdddf
fffff6bf
fffff77d
000002a2
00004a1a
00003b97
000011ee
ffffdc4e
ffffa474
ffffdfa0
0000105f
000017f0
00001680
ffffbf53
ffffa72b
ffffccc0
000039fa
00006193
000057f3
000017e7
00000b05
ffffdd10
ffffe2f4
ffffef31
ffffea83
ffffe26b
ffffeb25
00000041
ffffe7d9
ffffd690
000006cf
ffffff18
000055bb
00004d2b
00000d20
ffffdbc1
ffffbafb
0000045f
000028eb
00003a80
000032c4
ffffe8b1
ffffcbe1
ffffe984
00003e8e
000049e0
00003b53
000005ab
fffff566
fffff221
ffffede1
fffffaa3
ffffd9d5
ffffadb6
ffffb1d2
ffffdf35
ffffdc32
ffffdf63
fffffdf6
000000be
00003aba
000060e7
00005404
ffffb4f4
ffffa466
ffffde7c
000003c3
00005631
0000167d
00001040
fffff68a
0000173b
00003c96
00004863
000023d3
ffffdee0
ffffe88b
ffffddc6
fffff1f5
00001150
00003e6f
00001cfc
00001b04
000005a4
ffffc245
fffffa5d
fffffd4c
fffffeee
000056c6
ffffe0b0
fffffee4
ffffaafa
ffff92e8
ffffb1c8
00001243
00004272
000008cd
00000a78
00001a9b
00003bbb
00002aa5
0000255d
00000041
ffffe4fa
ffffcfe2
ffffd980
ffffd8b2
fffff8c0
fffff4e1
00003146
00001941
ffffcadb
ffff90aa
fffffa4b
00000464
000015b8
00006f38
ffffdbc7
00000409
fffff9d9
ffffab5d
ffffb3b9
fffffd02
00000565
ffffefbb
00000e1b
000039b7
00004f46
000006a4
ffffe5b1
00000cc7
ffffd36c
ffffdd6e
000007d7
fffff914
ffffd9e4
ffffece9
00000b14
fffff287
ffffc8c9
ffffc02f
fffffd11
00000815
0000253c
00003a4f
ffffe61b
ffffdb62
ffffaf35
ffffb460
ffffb964
ffffaab7
ffffe360
00000a9f
000044f2
00005878
000026be
ffffd2b1
ffffb294
ffffdc49
ffff9aef
ffffd0a9
ffffe874
fffff02d
00001d6c
00000cfa
000006c0
00000f46
00002399
00001918
ffffcfd3
000018cd
00004099
000016ed
ffffe6da
ffff955f
ffff9486
ffff7e75
ffffa082
ffffbd41
ffffeddf
00002f05
00005403
0000557a
000005d4
ffff7e1e
ffff5392
ffff7cbc
ffff6c2c
ffffb2e7
ffffcac2
ffffb735
ffffd76f
ffffea68
ffffe889
fffffef5
00001b5d
000021ce
ffffd69a
00001cf7
00002042
ffffe8af
ffffcd6c
ffff96ac
ffff9b96
ffffd684
fffffe63
ffffe4fe
00001065
00003c32
00005076
00002663
ffffca83
ffff502e
ffff14e4
ffff4ca5
ffff7bfd
ffff960a
ffffa9db
ffffa257
ffffbc41
fffffe86
0000128d
00002c4e
0000075c
ffffebf6
00000538
fffffb5d
000008fd
ffffe001
ffffb741
ffffdf82
ffffcac7
fffffd5f
00001635
000012fa
fffffa4e
000021e6
00003a94
00001f75
ffffa21f
ffff3ab7
ffff1b3b
ffff57c7
ffff6795
ffff73ca
ffff8db5
ffff9d62
ffffe53d
00000d9b
000029d0
000040e1
00002016
ffffeb10
00000992
00001d48
0000144f
ffffd6da
ffffce02
ffffe7c2
00001425
0000233a
00002790
0000150e
00000acc
fffff85a
fffff67b
fffff9a0
ffffafd9
ffff7133
ffff7568
ffffbfb9
ffff9881
ffff9b31
ffffa73d
ffffd19a
00002058
00002090
000049d7
00003d4a
00002075
000023f5
fffffd97
00001723
000014ef
ffffdc34
ffffc7c4
ffffc770
00004599
00003c92
000031c8
000019f0
0000055c
ffffe853
ffffcf0c
ffffde94
ffffd8f6
ffffc3ac
ffffad74
ffffc6ab
ffffd16b
ffffac29
ffffaf48
ffffd2f2
ffffef53
00000e2a
00004a90
00003221
fffff97c
000029bf
fffff818
00000704
fffffa1f
ffffbac0
ffffa7e9
ffffd7b5
00003ef7
000065aa
0000406b
000010f9
00000de0
fffffc4b
00000814
0000273b
00000a54
ffffe286
ffffcb5b
ffffbddb
ffff9f6e
ffffa115
ffffaca1
ffff9d43
ffffcaf3
00003b20
00006a55
000061c4
00001f77
00006ace
fffffef8
000007af
000008e9
ffffce0b
ffffe33d
00000c62
000071b7
00003b57
fffffdf6
ffffdf16
fffffbcb
000005bf
00000ea6
000056e4
00001ddd
ffffbfdd
ffffaab5
ffff667b
ffff859b
ffffa055
ffff82c2
ffff9a31
ffffeb61
00003b11
0000664f
000076f9
fffffa2a
fffff787
000007d9
00000041
fffffbc3
fffffbce
00001c36
00005896
00004219
00001630
ffffe0dc
fffffaef
00001696
ffffff7a
00003714
00003252
ffffe9b0
ffffd05c
ffffc339
ffffa69a
ffffb52d
ffffac83
ffff8121
ffffabbf
000010c1
00008d41
0000827a
00002b9d
fffff9b6
00000652
00000330
000005f1
00000515
0000084f
ffffe31d
000028b8
0000769d
000086e0
00004464
00000ee4
000001bf
000083a0
00001899
ffffc89c
ffff931a
ffffbbc5
ffffd553
ffffe58f
ffffad16
ffffca01
ffffcd66
fffffb29
ffffef00
0000164b
000023e2
0000007c
fffffee7
00000046
fffffad7
fffff902
000007ad
fffff999
fffff7bd
00003a18
00002c96
000028d4
00002925
000006cc
fffffd25
ffffe76a
ffffd907
fffffe8b
ffffffbf
fffff8ac
000006c3
ffffff95
ffffc328
ffffc448
ffffcb26
0000023f
0000069e
000006c8
00000469
00000236
00000594
fffffebc
ffffffbf
0000046d
ffffff2a
000001b7
fffffe55
fffff840
00000708
00000642
fffff702
000004eb
000006cb
00000162
fffff702
ffffe13b
ffffe1ee
ffffd6d8
ffffd815
000002f4
ffffff3c
ffffffbf
00000752
fffffbd2
00000357
000007d0
00000553
00000140
00000146
000007e1
000001cc
00000041
fffff8b5
fffffe8f
00000749
fffff8bc
0000056f
fffff861
fffffb64
000001b9
000004bb
0000029c
fffff9d5
00000a63
ffffda04
ffffc735
ffffd63e
ffffbc1c
ffffbed6
ffffdabc
00001b95
000019ed
00001948
fffffa5b
00000756
00000291
ffffff17
00000918
00000224
fffffda8
fffff8e4
00000799
000008a6
000017e7
00000232
000030c0
00001ce4
00000ad7
00002135
00001d8e
000005a9
ffffc298
ffffb9ea
ffffc606
ffffbb84
ffffa6d6
ffffbf1c
ffffee4b
ffffed9d
ffffdccd
fffff416
00000819
00001537
ffffce1e
00002b77
ffffff57
fffffd99
00000436
fffff8df
ffffe790
ffffe62c
fffff738
00001e30
00002979
000041d5
ffffecf9
ffffec99
ffffc6ce
ffffb438
ffffd577
ffff9dc7
ffff834b
ffff8e80
ffff82f0
ffff90d3
ffffa416
ffff9157
ffffd21b
0000237c
ffffdbd1
ffff722c
ffff85ba
ffffa626
ffffd01c
fffffd13
fffffad0
000004f6
ffffe135
ffffe62f
00000581
ffffdd26
fffffb4b
ffffff1c
00000ba2
ffffe27d
ffffd8cb
ffffe7d0
ffffc51a
ffff94f4
ffffbc05
ffffb3da
ffffa86d
ffffacbd
ffff9bdd
ffffadca
ffff9d3a
ffffa0de
ffffbdcf
ffffb6f6
ffffbaed
ffff8fc8
ffffceb3
ffffba77
00000889
fffff734
0000134b
00002ec6
00001dab
000024d6
00001a2f
0000026b
ffff7fcf
ffff8d4e
ffff9080
ffff895a
ffff66c6
ffff6ac5
ffffb4fc
ffffbf7f
ffffc4f7
ffffb471
ffffa9bf
ffffa72d
ffffb3b7
ffffbee2
ffffe51e
ffffde82
ffffd7cc
ffff79dc
ffffce6b
ffffcd4b
0000007b
ffffd979
ffffd122
fffff095
00001a3a
ffffb054
ffffd138
ffffcd0d
ffffd869
ffff9f74
ffff8b86
ffff7ffb
ffff69ef
ffff9218
ffffb9ed
ffffbb12
ffffcf4a
ffffcae1
ffffe06b
ffffcf7d
ffff9a38
ffffbd3d
ffffde02
000004f7
0000070f
ffff9e9a
000000d7
fffff89e
fffff7bf
ffffb60c
fffff866
ffffd904
00000a94
ffff9e37
ffff63df
ffffc422
ffffc688
ffff5716
ffff5681
ffff895b
ffffa4f8
ffffb8e3
ffffb37d
ffffbe69
ffffedeb
ffffec22
fffff123
ffffd5f5
ffffbe6a
ffffe68c
0000262f
00003079
000015f6
ffffe796
00002b74
fffff936
ffffca9c
ffffb801
ffffe1ad
ffffeeea
0000078e
ffffe37e
ffff971e
ffff98e1
ffff7e3e
ffff56b7
ffff5e57
ffff753a
ffff7d8b
ffffac18
ffffa92c
ffffe948
00001d2d
00002e60
00002624
000021ad
00001479
00001b07
00002fb8
00004a5c
00006831
000046d3
00001d51
0000aa80
000027f0
ffffea10
fffff48f
fffff791
00000043
ffffdd8a
ffffba50
ffffa4af
ffff6b0c
ffff8cb7
ffffc613
ffffa727
ffffbdf7
ffffc360
fffffa07
00004d30
00007edd
0000738d
00006bb0
00004ad0
000035c9
00002f09
00002a8a
00002a16
00006586
000060ed
00006277
000040db
00002809
000012b6
ffffeb86
fffffa27
fffff17c
ffffd152
ffffa3ec
ffffaa94
ffff8b45
ffffd9bb
fffff836
ffffe4d4
ffffd4e1
00001767
00007fec
0000a866
00009325
00005d27
00003ed1
0000238a
000024b0
00002308
000031c6
00007389
00008576
0000963f
00008d8b
00001fcd
0000133e
ffffede1
000042e7
00001089
000018e5
ffffbb09
ffff8530
ffffabaf
ffffc2f9
ffffebed
fffffc26
0000009e
0000068a
00005bbf
00005c4c
00007890
00007859
0000239a
fffffdb8
ffffdf51
ffffde33
00000e8f
0000284a
000055f5
00005b38
00007d88
0000137f
00002f3b
fffffeeb
ffffd59e
fffffe48
ffffe1be
ffffe7cc
ffff9695
ffff82fc
fffffc89
00000c81
ffffe5ea
00001882
0000222b
00001c32
00005686
00005a57
000039e5
00001e09
ffffe2e7
ffffc7bd
ffff8903
ffff9984
ffff9834
ffffc1d0
ffff7881
ffffa58e
0000914d
00007ef3
ffffddb9
000029b6
00002f1d
000023b1
0000184c
ffffe0a1
ffff74e8
ffffb110
0000415a
00001d68
000027a7
00005cea
000044df
0000488d
000043a0
000020df
fffff400
ffffd2ab
ffffc530
ffff9c80
ffff7129
ffff42a5
ffff63a3
ffff7434
ffff4e69
ffff7fdb
000046b3
000036cf
ffffdcf3
000008d3
00000151
00000ea8
00001c18
ffff96a5
ffffa719
ffffb7cd
fffffdc2
000022a6
000042a0
0000351f
00001ba1
00002555
00001af7
fffff3f8
ffffd669
ffffc343
ffffb7b2
ffffab90
ffff5e44
ffff67bc
ffff7a59
ffff976b
ffff87c4
ffff9318
ffffd37b
00003074
ffffdff4
00000322
fffffe8a
0000172a
ffffeb89
ffffdc2a
fffff46d
000006e8
fffffc36
ffffdf9f
fffff79a
ffffffa3
ffffe94c
000019d1
000002dc
ffffce23
ffffb2f1
ffffc696
ffffe789
ffffd749
ffff7605
ffff71c6
ffff8d5e
ffffbbba
ffffafe3
ffffb6b1
ffffbf8e
000032e7
ffffd743
fffff852
ffffcd4c
000019c2
ffffd0e4
000025ca
00006939
00000ab3
ffffcc5d
ffffdc24
ffffc0aa
ffffc80e
ffffc9db
fffff3ff
fffff12f
ffffc193
ffffd048
ffffec32
fffff0a6
ffffe677
ffff81d8
ffff75f9
ffff7a4e
ffff97f3
ffffb3c6
ffffd66b
ffffddde
00005bdf
000019d0
000008d1
fffff569
ffffcd6d
00002831
000050cf
00005c63
0000263d
ffffea53
ffffe985
ffffe9ca
ffffe28e
ffffc63c
fffff9ea
00000041
ffffeab8
0000156d
fffff089
ffffdef3
ffffd4c4
ffff762d
ffff9c2d
ffffaceb
ffffb1d8
ffffc0cc
fffff82d
00001fe1
00007817
000019b3
ffffed64
000020b2
ffffc3fe
fffffa17
000061d4
00004854
00002446
fffff498
00001518
000033fb
ffffebd3
000006e7
00002940
000031ba
000006fb
ffffff92
ffffd6f4
ffffbbed
ffffc1c8
ffff9d61
ffff99c7
ffff836f
ffffb4bb
ffffde99
ffffe88e
ffffd525
0000666c
000024da
00002b6c
00002b8f
00002c4a
ffffdde7
00003492
000017c6
0000046c
ffffe1a6
00000e3b
00002909
000013da
0000185b
00002645
00002f30
000018ae
ffffec29
ffffd5be
ffff9eee
ffffb636
ffffcbd2
ffffbe12
ffffa498
ffffd8d7
ffffed92
00003d9a
ffffdc68
000013da
00001e42
fffffbe8
000028e0
00001ac8
ffffe020
ffffe58a
00001bda
ffffc747
ffffc059
ffffde20
00000864
00001cb9
000038ea
00001d1f
00000747
fffff43f
ffffd9f9
ffffdd25
ffffa2de
ffffcf33
ffffcca0
ffffd989
fffff2b2
ffffff43
0000172f
000044c3
00002e2d
00003977
0000154b
00000b17
00000cb8
00001624
0000263d
000010fa
00002657
fffff02e
ffffc960
ffffe623
ffffdcae
ffffe1dc
00000084
fffffbb6
ffffef49
ffffeb4d
ffffe4e4
ffffb083
ffffba47
ffffcb34
ffffa90f
ffffdd54
ffffef29
fffff179
00002f58
0000517a
000035df
00005e91
000004dc
00000d9b
0000122f
0000249a
00001bfe
0000180f
ffffe441
fffffa36
ffffde37
ffffe731
fffff242
ffffe32f
ffffea9c
ffffeb61
ffffd718
ffffdd5b
ffffd02b
ffff9a59
ffffc182
ffffdbbd
ffffaeb3
ffffc3af
ffffe53c
ffffe27f
00002654
00003569
fffffede
000026fb
fffffd9d
000008c1
00000486
ffffdf90
ffffe82a
fffffa2f
00001194
fffff0b8
ffffd6c4
000019fe
00002a15
fffff3a3
ffffd619
ffffe5fe
ffffb3cb
ffffc541
ffffba17
ffffd54f
ffffeb7c
ffffe2d0
ffffa0f8
ffffcd8e
ffffc3c1
ffffc6cb
00000775
0000101a
fffff4da
000040e7
fffffb72
fffffd53
00000241
ffffc5cf
00002839
ffffda2e
ffffcdd2
ffff977e
ffffbc63
ffffdfa7
00001df1
fffff55c
ffffc39f
ffffbc43
ffffd70d
ffff9c8c
ffffc0da
ffffc916
00002341
00000aa1
ffffca14
00000e7f
000041df
00004d69
0000272b
ffffe5ac
00002243
00002866
fffffd11
00000041
000003da
fffffcf1
000017bb
ffffd0b4
fffff31f
ffffbcce
ffffcc3b
fffffc5e
fffff9f8
ffffe436
0000139e
fffff9ae
0000056e
ffffe5c5
00000b64
000053f4
00008eb1
00000bf0
ffffe91d
00000bbf
00007b29
00007ec5
fffff607
ffffc755
000006f5
fffffc04
000005b6
fffffdb8
fffffcc9
fffffd45
0000269c
0000222f
0000307f
000035e2
000025ec
00000dbe
0000063d
00001407
00002063
00006246
0000151a
00002fc1
00004415
0000d2a7
0000d5dd
000070ce
00004e66
00002c9b
fffffc17
ffffe0f0
ffffe1cf
fffffc4b
0000237c
fffff76c
fffffdb4
fffffa94
0000027a
000005b6
000001b7
ffffc637
ffffb618
ffff92e6
ffffa51a
ffffd11f
fffffa50
fffff6ab
0000122a
00001e68
00004be2
00005a62
00005f4a
000048ed
00001d45
00002e42
000027b7
fffff92b
00000185
fffff963
fffffe63
fffffbe4
fffffa7a
fffff73b
ffffffbf
ffffff2e
000001cc
00000740
fffff6ee
fffffb12
000008bd
fffffc4f
fffff737
00000790
ffffffbf
000002e9
fffffa7f
fffff883
00000605
fffffad3
fffff7d3
ffffff21
fffff761
fffffb1b
fffffc96
00000041
fffff77c
000003cc
fffffea4
0000007f
fffffa55
0000081d
fffffe2d
000006b4
000002e3
000008ee
0000058a
00000378
fffff7d4
0000027a
0000073d
00000713
00000576
00000415
fffff9c5
fffff5e4
0000073f
fffff908
00000854
fffffb6c
0000085d
fffffe1d
ffffffbc
000005bd
fffffb90
000006ab
0000026f
000006e3
000005d1
fffff76b
ffffff30
000003d7
fffffdae
0000011c
000004f9
000003b2
00000342
00000041
fffff3fa
fffff14d
fffff429
fffff279
ffffefed
fffff236
ffffff95
fffff4ad
fffff4e0
fffff696
ffffea80
fffff33b
fffff54c
ffffec38
ffffecad
fffffc8c
0000011d
000006a1
fffff770
000006fb
00000282
00000213
000007a6
ffffff9c
000007a0
ffffff2a
fffff749
fffff866
ffffe8ac
fffff253
ffffeaa8
fffff827
ffffeb41
00000d6e
000015b2
00000863
ffffebaf
fffff0b9
ffffefe6
fffff896
fffff5b2
fffff48c
000004da
000008db
fffff7ab
000000bf
fffffc8b
000001f8
fffffd50
fffffb00
fffff77f
0000059a
fffffbee
fffffc42
000003de
00000379
00000d9a
0000100d
ffffea58
ffffef9e
ffffec9f
000014b9
fffff44d
ffffeb72
fffff650
fffff5ac
fffff64f
fffff59c
fffff2c1
fffff2cc
ffffed0b
ffffed63
fffff9c9
000006c0
000000cc
fffffa6e
00000531
000003ff
00000569
000001fb
fffffacb
0000074c
00000a38
00001792
00000804
fffff5e2
fffff1e8
fffff860
ffffec96
ffffeebc
ffffebc4
fffff1d3
fffff583
ffffeea0
fffff89d
ffffe7bd
ffffeaed
ffffefa3
fffff475
fffff99d
fffff2eb
00000458
ffffee42
000007ca
fffffd63
fffffa0b
fffffefd
fffffe37
00000269
0000147c
0000105f
00000a22
000017c0
ffffef8e
fffff853
fffff4c6
ffffed1f
fffff45d
ffffe898
fffff4e7
fffff741
fffff935
ffffe918
fffff4ef
ffffe81a
fffff0f6
ffffeda6
ffffeb1f
ffffed0b
ffffeb58
fffff574
fffffd9b
fffffd40
fffffda5
000007e6
fffffbfd
00000c81
00001592
000011c2
00000aff
ffffebd7
fffff6c4
ffffed97
ffffe89a
ffffe820
ffffeffc
fffff6c1
fffff382
ffffef96
ffffec5d
fffff268
ffffea4d
ffffea04
fffff3be
fffff218
fffff157
fffff296
fffff6c1
fffff114
000002ae
fffff7ed
fffffa47
00000051
00001531
00001715
0000140e
000010b0
00000ca3
fffff1d3
fffff6b6
ffffec9a
ffffebcd
ffffe78b
fffff883
ffffe95d
fffff222
fffff351
ffffe99f
ffffee19
fffff19f
ffffeac5
ffffedf7
fffff5e0
fffff2eb
fffff7b0
fffff6db
0000142e
fffff7cb
000000f3
00000046
fffff870
000010ab
0000131a
00000e4a
00000db3
fffff856
fffff213
fffff1e3
fffff303
ffffe809
ffffef67
ffffeb2d
ffffee12
fffff832
ffffe87a
fffff414
fffff01d
ffffee9b
fffff861
fffff4fa
ffffece0
ffffecfb
ffffeb51
ffffe950
fffff968
0000044c
00000687
000006ca
000006a0
00000a18
00000f61
00000bca
fffff88e
fffff24c
fffff91a
ffffedeb
fffff826
fffff6ed
fffff18c
fffff5f9
ffffe978
fffff46e
ffffea45
000011ee
000007cf
fffff8d0
fffff36b
ffffefdc
fffff844
fffff24e
ffffeaa4
ffffeb94
fffff833
00000420
fffffd63
fffff9a6
fffffb75
0000102e
0000150d
fffff360
ffffe853
ffffec1c
fffff6a9
ffffe9a2
fffff8bc
fffff584
ffffeb2c
ffffeeea
ffffee9a
ffffec3e
fffff45d
00000735
ffffec93
ffffe9b2
fffff4ef
ffffeffb
fffff585
fffff7eb
ffffe7ab
fffff61c
fffffb9c
000006c3
000005af
fffff8b3
fffff87b
00000602
fffff94a
fffffcaf
fffff2ee
ffffeba3
fffff2c5
ffffef5d
fffff820
fffff425
ffffeb1c
fffff07b
ffffea39
fffff7a3
ffffef31
fffff7d0
ffffee6c
fffff074
ffffebc5
fffff94e
ffffeba6
fffff881
fffff479
fffff181
000000bd
00000549
fffffa62
000008ea
000004b3
fffffe54
fffff7cd
fffffbb1
fffff01e
ffffeb60
ffffed28
ffffe908
fffff75f
ffffeb79
fffff134
fffff1e7
fffff02e
ffffe806
ffffe8e8
fffff489
fffff3ba
ffffea0c
fffff6c4
ffffea39
fffff190
ffffecea
fffff493
ffffeef4
0000037f
fffffe02
fffffc42
00000833
000007b1
ffffff20
ffffffbf
ffffff95
ffffe8c2
ffffeb24
fffff8ca
fffff06f
ffffeaa0
fffff793
fffff740
ffffe789
fffff0b3
ffffe819
ffffebd8
ffffef7f
ffffeaf6
fffff09c
fffff26b
fffff92f
ffffee6f
fffff50e
fffff63f
ffffee57
fffff373
fffff969
fffffa74
000000b4
fffff7a6
fffffa6d
fffff75a
ffffeb6b
ffffe9f0
fffff382
fffff75e
fffff41a
fffff4b8
ffffe873
fffff4a7
fffff1ba
fffff021
ffffe7d0
fffff26b
fffff6eb
fffff14b
ffffe790
fffff679
ffffed67
ffffee86
ffffe84b
fffff099
fffff56a
fffff4b8
fffffe57
00000597
fffff74a
00000268
fffff7b8
0000022d
fffff480
ffffeaee
ffffe7f4
ffffef7d
ffffed10
fffff422
fffff359
ffffea65
fffff4df
fffff04f
fffff0a8
ffffea8b
fffff0ed
ffffedc0
fffff7c9
fffff3a3
ffffedff
fffff953
fffff7d8
ffffe9bf
fffff882
ffffee13
000000fd
00000545
00000155
000006d5
000001f9
fffffbf4
fffff725
fffff557
fffff737
ffffe845
ffffee7a
ffffe811
fffff6bd
fffff221
fffff2f7
ffffebe0
ffffedc0
ffffe89e
ffffed46
fffff3be
fffff1b1
ffffe906
ffffedfa
fffff170
fffff90f
fffff64d
fffff2dc
fffff908
000005ef
fffffc93
00000818
0000086a
000007ac
00000145
fffff1cd
ffffea3d
ffffea81
fffff3cf
ffffeb0c
fffff267
fffff60d
fffff3e2
ffffec27
fffff560
fffff0af
fffff7ba
fffff456
ffffec77
fffff684
fffff573
ffffec9a
fffff7f6
fffff187
fffff6e0
fffff287
00000756
00000a60
fffff6ea
000005db
00000510
00000136
fffff20a
ffffecc4
ffffed3f
ffffee68
fffff435
fffff7ad
ffffef7b
fffff76d
ffffef29
ffffeed3
ffffe78d
fffff677
ffffef1e
fffff14c
fffff796
fffff56b
fffff67d
fffff752
ffffea59
fffff526
fffff10d
000011fe
000006e6
0000112c
fffff9a4
00000383
fffffcae
fffff12d
ffffe840
ffffef93
fffff972
fffff178
fffff76e
ffffee20
ffffeee3
ffffe833
fffff25e
fffff833
fffff527
fffff9b0
ffffeee8
ffffe7c7
fffff552
fffff3ad
fffff7de
fffff943
000013ed
000008b5
0000108b
00000bd7
00001235
000013e5
fffffb0f
fffffc12
0000086a
ffffe7f1
00000626
fffff20d
fffff950
ffffedd4
fffff942
ffffee90
fffff392
ffffed0e
ffffeba1
ffffeda7
fffff021
ffffe9be
ffffe822
fffff8eb
fffff58f
fffff840
ffffec7f
00001586
00000ed1
00000776
00000644
00001406
00000b61
00000ecf
000004ba
fffff84c
ffffff25
0000017a
00000573
0000074f
ffffee92
fffff0a9
ffffed20
ffffeace
fffff854
fffff45d
fffff82f
ffffed24
ffffe81d
ffffe956
fffff8eb
ffffefc2
ffffed82
ffffe7bc
00001625
fffff44f
0000077d
00000a98
000008ae
00000693
fffffeba
0000058b
fffff996
000001de
000003af
00000880
fffffd1f
0000091a
fffff05d
ffffe9a1
ffffed99
ffffecce
ffffefd6
ffffed13
fffff029
fffff4fd
fffff238
fffff915
fffff67f
ffffeb41
fffff9af
ffffedaa
00001449
fffff2fc
ffffe9e1
fffffbd3
fffff94c
000000f5
fffffa7c
00000640
000002b0
000005b0
fffffd81
fffff8eb
00000295
000003f0
fffffcdf
fffff704
fffff875
00001474
00000c9f
00000a44
00000a4b
000012eb
fffff4b2
fffff56e
ffffee5a
fffff7bd
fffff7df
ffffec31
ffffeac6
ffffe91c
fffffc16
0000056d
fffff748
fffffc0b
fffffe0e
fffff7b3
00000597
00000783
fffffd4f
fffffb0c
fffff6e1
000005fd
0000022b
0000074d
00000456
00000780
000012c2
00000d56
00001215
00000efd
00001389
00001783
00000c78
ffffe791
fffff270
00000b1f
ffffff26
0000058a
fffffcef
000008e5
0000055e
fffffe45
00000240
00000611
fffff9c3
fffffc2d
00000840
fffff86a
0000059c
fffffa96
fffff9b3
fffffbb0
000003d8
00001772
0000157f
00001320
00000e78
00000f3d
00000aeb
00000956
00001157
00001450
0000110e
00000248
fffffa2b
fffff86d
fffffb49
fffff87d
000005dd
fffffce3
00000099
fffffaba
000005d1
00000390
fffffcac
000005ac
0000008a
fffff9ad
00000621
000006ae
fffff77a
000007ad
0000065a
00001058
00000f97
0000017d
fffff88d
fffff867
00000866
fffff8d8
00000041
000004c8
000005e5
000007f1
00000041
fffffe1f
fffffcfa
fffffc9b
fffffa0d
fffff988
fffffa63
ffffff3d
000005c5
00000660
fffffa18
00000686
fffffd0c
fffffc1d
fffff77e
fffffc8c
00000482
fffffaa5
fffffc23
fffffebb
0000048f
00000607
fffffb4f
fffffd6a
000008fd
ffffff1f
fffffa23
fffff729
fffffa4d
ffffffba
00000523
ffffffbf
fffff88f
000007df
00000751
00000835
ffffffae
fffffae0
000005ff
ffffff08
fffff76a
000003e9
00000179
0000019e
fffff028
fffff02c
fffff41b
ffffef50
ffffface
ffffdacd
ffffd26f
ffffdbee
fffffb7d
00000341
fffff7c1
fffffab4
fffffd49
fffff7da
00000388
fffffea6
000006c4
000000f0
00000097
000006fb
0000079d
fffffeb8
000006f7
00000648
00000041
fffffb48
00000994
00000a83
00000d30
000017f5
00001234
ffffd670
ffffe5c1
ffffd073
ffffe19d
ffffd8c2
00003e94
00003eb8
0000372b
00000c70
fffff3b3
000025eb
00002605
000004e1
fffffbfd
fffffc87
00000676
fffffced
00000728
00001cbc
0000244a
fffff83d
00002774
fffffcc0
000006e7
00000092
fffff96f
fffffe5f
000001fa
ffffcbb7
ffff8589
ffff6336
ffff9df6
ffffed8b
fffff7fc
ffffd3e2
ffffd2e7
ffffe1a9
ffffb119
ffffcaf6
00000c44
00001b70
00000664
fffff8e7
fffffdb1
00000099
00000320
000027a0
000023b5
00000184
ffffff44
00000998
fffff08b
ffffd8a0
ffffd5df
ffffc77e
ffffb6fb
ffff8e6a
ffff9f74
fffff168
00000a1c
00000c46
0000108a
00000ad2
00000ce5
ffffc420
ffff8773
ffffb31f
